/backbone/conv1/conv1.0/Conv_param_0 6284.032227 3979.193604 17112.552734 4363.212891 3830.464111 8451.053711 10581.272461 4263.367188 6399.259277 4591.235840 3862.196045 3727.681152 4043.750000 4478.864258 12463.884766 4990.089844 3483.246826 23638.910156 3786.913574 5482.164551 3906.779785 10921.229492 3552.712891 3772.541992 
/backbone/stage2/stage2.0/branch1/branch1.0/Conv_param_0 346.369049 429.280975 130.618454 491.885986 311.041809 96.023392 66.112251 324.649750 123.403023 97.438187 220.738205 357.401337 411.921814 341.677673 90.870102 221.907898 310.000885 60.668827 98.588890 323.789764 240.072220 114.361588 197.946564 478.710297 
/backbone/stage2/stage2.0/branch1/branch1.2/Conv_param_0 433.273193 336.704834 483.132416 451.254639 202.149475 272.622467 107.977608 270.730408 114.623276 75.734718 223.507980 147.668655 95.379265 296.755371 149.330902 78.277786 197.202560 116.742302 182.951279 381.839844 250.574951 349.426666 146.612061 208.227539 365.013336 447.308472 293.243591 133.527969 166.329544 169.309174 130.104553 147.651550 88.601273 154.072998 107.363373 129.645416 220.483841 110.543602 192.724030 303.190826 126.097046 122.544342 107.697037 189.228317 149.381851 140.291672 106.668091 124.606346 161.601547 127.508369 171.590958 147.773254 168.741974 78.256981 233.670914 214.987946 102.120750 104.931702 
/backbone/stage2/stage2.0/branch2/branch2.0/Conv_param_0 234.839935 17.954933 inf 39.573612 130.803009 269.412903 152.434891 93.778816 118.713829 51.609283 138.621796 52.353031 124.759605 127.125298 56.527374 294.243805 74.887756 229.509293 85.342545 35.975643 104.544289 7022825403997057411446734848.000000 144.867645 57.618721 99.439209 12676292031856955191342399488.000000 161.893509 210.154510 62.050804 38474939471528974476546538471424.000000 115.276787 inf 173.505600 217.373550 26.955490 85.460663 187.539795 152.426437 69.307663 72.838974 75.860191 170.092606 36.711834 346.453033 98.561775 308.474823 168.649017 99.759743 111.317253 96.919586 67.940292 157.970505 85.687706 263.366486 106.101555 233.055603 106.043510 86.676254 
/backbone/stage2/stage2.0/branch2/branch2.3/Conv_param_0 104.936333 830.958252 24668098292671128222363025408.000000 805.709412 225.014771 114.025780 114.312851 265.015594 289.867493 315.621002 329.801880 292.672394 172.707870 81.318771 384.812897 57.822739 129.192001 62.312450 105.072189 287.035309 230.530914 561505270718445582811136.000000 143.524490 156.814255 352.874329 2783672191489130136338432.000000 57.754662 100.521828 154.550430 2322922185468754972297396224.000000 124.194443 187136352268020056327553286144.000000 149.197784 141.711685 460.596130 377.743744 173.948532 135.981857 139.353516 425.659058 267.548676 101.290977 430.992065 85.675117 153.634354 40.995956 181.547302 230.600433 333.654663 240.023697 604.553894 175.128098 108.616257 46.682934 84.983078 149.800873 161.382721 239.117096 
/backbone/stage2/stage2.0/branch2/branch2.5/Conv_param_0 187.368912 423.937714 421.767395 454.714539 143.539734 346.756927 225.899902 95.465508 159.744537 294.568420 96.591522 165.109497 147.565842 142.284744 352.576294 183.816345 123.955650 205.658127 240.115845 129.831650 177.262421 224.079254 163.889999 318.805267 338.150543 261.588654 101.175240 204.963135 213.537964 102.615738 101.688156 112.749138 177.258530 123.418190 158.068008 175.977203 115.534027 109.752632 88.864090 221.081009 192.790817 154.836304 123.096161 142.067154 190.627899 140.638153 216.588547 195.410049 226.997147 163.610260 132.773956 104.670570 183.254242 268.790863 162.737946 287.760406 193.473846 166.542206 
/backbone/stage2/stage2.1/branch2/branch2.0/Conv_param_0 280.522217 461.773468 303.297852 166.837051 61.157406 76.572830 353.595062 81.779068 76.373116 145.895370 668.386536 58.322800 434.570160 168.225235 198.962601 107.974449 510.150543 268.968842 104.674164 83.296677 536.850525 111.471313 90.398254 211.012512 1131841703989397499674624.000000 333.122650 305.844635 28.076162 466.812103 252.762283 347.283081 93.879524 617.042358 77.623779 231.597748 190.259262 183.490891 595.316956 122.487030 29.763477 82.465569 69.429024 607.078979 212.068436 113.083870 315.489014 149.897430 711.484314 113.957184 170.206894 105.182777 261.074097 220.675751 35.582951 172.935455 641.258362 282.499298 91.671021 
/backbone/stage2/stage2.1/branch2/branch2.3/Conv_param_0 115.950058 83.698776 132.657776 143.195999 410.322662 756.052734 75.344475 124.510567 75.459290 162.737030 38.705368 239.298126 98.604965 95.379272 41.702736 272.326477 81.612579 149.335602 317.320892 130.394318 52.500599 219.002304 182.104309 125.898262 1847662545723715485696.000000 54.746258 120.195869 304.926453 64.371735 91.826080 121.247147 266.794861 72.596825 76.865875 44.739288 161.810959 89.426506 51.025230 57.102119 418.344543 227.776337 107.237144 50.947941 110.414001 104.855522 52.848949 150.592834 36.925236 287.418243 171.755692 295.992615 107.374634 101.698509 567.175903 135.820862 53.538040 105.498337 162.184921 
/backbone/stage2/stage2.1/branch2/branch2.5/Conv_param_0 211.309631 317.304565 234.783722 282.829254 295.023987 189.929169 290.716339 321.571106 243.347641 206.252579 278.312836 250.636871 217.895813 503.692749 192.750443 202.031570 245.321579 285.246796 394.152832 322.942444 311.472412 392.133606 295.490387 218.698257 435.031006 469.212769 282.743347 286.176453 117.134544 234.717850 279.069427 320.689240 298.831299 220.124573 220.753510 222.318848 355.960571 351.958160 371.888885 349.890076 207.195084 285.599823 300.205444 285.122101 169.883850 119.771500 191.801910 432.819519 160.281036 162.086456 364.208923 366.863678 302.454315 232.029999 343.217773 158.731979 391.788025 300.125885 
/backbone/stage2/stage2.2/branch2/branch2.0/Conv_param_0 101.196327 262.108643 235.487503 87.300682 118.495934 302.961884 215.000076 100.469284 362.834137 188.341080 148.692917 248.167358 471.558868 375.384155 312.551361 167.040237 398.193787 159.463776 98.157860 376.545929 131.917175 120.630707 183.247452 177.743393 inf 346.934052 253.921875 498.133942 194.485168 274.605469 81.970520 51.250839 420.268921 248.821869 261.970367 101.083458 645.657104 179.801544 345.415375 305.355591 357.687134 568.999390 99.315498 218.133118 106.316818 343.088867 144.738922 184.333862 235.079224 360.690094 304.056580 417.172729 260539343499403166199937236992.000000 297.940552 65.527420 131.548538 177.078537 242.767380 
/backbone/stage2/stage2.2/branch2/branch2.3/Conv_param_0 335.310547 163.872528 88.887527 215.918472 207.411316 91.598015 94.251343 93.668221 69.436325 176.260071 250.168396 123.395248 106.586166 91.958107 61.665012 106.108253 112.420593 240.180481 256.613037 85.575073 234.020844 318.365936 135.935806 154.517410 6522051495054111624050769920.000000 102.702454 93.291382 76.925140 241.709778 98.749451 103.042259 707.459351 69.585823 104.871361 53.417576 255.131119 89.397743 136.182526 86.685883 101.480553 86.443428 73.549713 376.624756 90.133049 667.336975 75.351212 322.710236 120.807114 89.446510 85.416809 92.470085 72.350914 6215645980076745609445376.000000 65.095428 286.047119 218.166733 705.349121 76.568542 
/backbone/stage2/stage2.2/branch2/branch2.5/Conv_param_0 327.096771 210.762711 149.004807 192.925003 244.586319 220.304382 285.518951 265.149139 307.266052 160.258514 197.819901 264.658173 227.498749 266.650269 211.087097 278.133179 176.839050 181.738434 265.239044 187.682831 178.443695 155.113907 321.253876 234.992966 192.237900 142.909225 210.653793 309.894958 155.840820 276.825592 301.684906 406.194275 366.872742 322.817688 466.049927 226.204727 261.503662 297.161407 380.722198 358.743866 177.394882 586.608093 379.962830 263.335754 256.871460 379.636871 302.726288 290.025330 303.738953 252.224243 346.493500 272.916046 212.130859 190.786407 349.116333 191.326965 282.446411 359.286255 
/backbone/stage2/stage2.3/branch2/branch2.0/Conv_param_0 512.757446 277.029175 166.826004 122.588463 48.587368 120.182785 351.598419 175.428757 138.897888 284.749756 374.561676 366.346832 112.144836 447.293121 73.335678 139.543427 127.200134 92.178551 539.433289 94.868980 123.643814 396.613312 135.178787 99.257835 237.717529 336.668304 298.996765 310.732208 143.414810 545.286194 181.575439 444.654663 540.991211 105.298531 348.117676 135.052292 332.356201 396.538544 87.245895 67.005745 329.543945 99.733040 246.475098 74.071808 193.166092 52.582401 238.755692 150.225403 241.448196 384.016388 125.153702 122.488068 198.657928 336.419586 215.161026 83.060616 114.432785 352.227814 
/backbone/stage2/stage2.3/branch2/branch2.3/Conv_param_0 89.790291 133.825104 140.747025 42.317577 435.874054 87.818573 157.587204 179.415970 190.424728 81.408295 108.040070 119.699959 192.806473 50.773838 490.161865 188.750061 246.496506 178.304901 216.683456 345.151978 159.188507 175.689865 223.872040 274.674683 128.765793 93.049355 91.295021 95.636497 171.272629 60.863388 177.598145 82.256721 71.588165 279.970215 71.742661 111.947411 120.819336 57.336704 159.048904 346.281067 117.672256 76.744812 145.098633 328.209137 105.000542 528.247925 105.661720 271.832886 116.299286 100.707451 191.815308 84.300903 108.624268 120.661118 153.751953 157.187469 99.292610 58.379269 
/backbone/stage2/stage2.3/branch2/branch2.5/Conv_param_0 268.332642 241.226700 187.339783 240.945312 248.523575 179.930099 300.480316 214.464462 269.026306 279.401154 225.294083 211.157181 306.776581 245.994217 344.740784 176.009338 231.624084 342.674103 339.093811 273.580414 220.862823 263.064423 188.567871 201.504379 415.361786 151.904617 366.631744 237.708679 393.309479 262.852386 290.177856 131.401566 312.424591 428.827606 173.277313 245.671585 353.565735 192.730072 253.534912 192.200241 202.944672 253.862610 238.295242 324.693542 360.255280 167.359619 329.103760 329.668274 290.035736 301.850708 335.413879 511.844269 243.565918 177.690033 235.072021 262.981689 442.354004 278.478638 
/backbone/stage3/stage3.0/branch1/branch1.0/Conv_param_0 225.389847 228.126877 401.933167 316.024750 421.177490 518.066895 564.088623 188.994629 146.458008 442.402679 246.285690 397.317749 430.971344 229.727661 447.455597 559.140076 140.527496 248.849701 471.019348 335.741241 184.123749 444.140991 515.376648 478.205688 114.272865 127.037865 554.630981 319.481873 218.287384 148.056961 891.643860 460.101166 281.302368 290.358673 742.305664 109.123581 513.765747 187.757996 352.912567 169.979401 103.847198 249.342590 579.431274 151.008301 222.417542 199.489548 692.251953 248.908783 217.120392 148.142029 775.512512 434.634796 364.937408 376.937042 534.766663 288.708038 145.974426 146.051407 753.997864 172.254684 260.134827 454.242157 982.627197 428.388153 151.026169 173.359802 297.026154 143.211182 250.452927 257.694061 544.707520 571.268860 578.516907 150.719879 325.267578 368.731232 430.190369 205.594376 319.750763 855.332703 203.962433 527.127563 370.878357 512.915405 545.704712 379.391174 566.941467 190.870346 259.467133 193.232712 827.227722 187.803818 210.591766 215.540115 449.539124 171.346619 338.187958 846.195618 219.615997 124.258530 236.223236 184.933594 436.821228 155.846909 363.032440 354.531403 361.884308 188.002777 297.589386 172.643417 619.138245 174.751541 130.598907 107.470009 362.459351 214.610794 
/backbone/stage3/stage3.0/branch1/branch1.2/Conv_param_0 307.247559 638.902222 303.153870 452.674347 273.597717 293.116882 327.313019 326.566254 255.871185 544.857483 390.616211 556.050476 469.054016 501.022522 398.857361 301.109283 416.882629 280.607117 575.760010 492.188232 460.303253 223.202713 183.826279 188.484528 363.527832 138.178406 342.541534 254.448105 274.481659 135.775620 298.800720 359.865845 207.807404 401.954407 435.229614 222.217117 343.518066 292.083801 430.949219 291.187317 201.653259 187.468811 329.959320 340.221680 483.468079 326.009613 413.916718 181.054962 180.100357 179.035263 185.833832 275.347198 242.262009 366.514496 248.250732 187.855927 362.889526 460.540680 504.782562 267.001556 569.527161 454.086060 256.941284 171.611206 316.123840 318.575592 396.549286 678.201233 292.507599 407.703827 340.306610 355.019196 442.746277 456.480011 351.247314 247.710938 181.371277 286.109009 477.063110 462.949463 418.250000 252.253540 181.163818 212.889130 557.044861 215.605667 422.457214 206.739059 445.024323 304.505585 248.381851 269.335022 287.160767 659.604553 214.650528 237.017593 201.520996 263.361572 226.189743 423.215515 214.725983 410.129944 426.828430 690.941650 464.510345 280.334991 246.145996 438.940125 232.308609 268.504303 273.391968 305.636810 266.084167 670.164307 531.097900 277.106842 
/backbone/stage3/stage3.0/branch2/branch2.0/Conv_param_0 628743916309680701115990016.000000 333.430389 626.880920 393.713776 78421398146697370274881339392.000000 324.773254 347.436340 392.663300 328.166809 inf 339.937683 479.228058 314.030182 445.184113 393.457489 418.664490 508.149048 532.397827 271.710480 66180724220601326138160171712512.000000 305.430817 310.469513 265.560028 384.763245 370.174469 73159528985116923643120104505344.000000 316.352875 4602662879451773284018705924096.000000 279.598816 139.595551 523.669312 401.143127 1891589521581981206315008.000000 300.693756 472.628937 503.699951 227.060638 410.782867 231.682465 406.431091 290.229889 380.612000 229.944977 254.600510 422.412811 479.637573 384.972076 296.506042 275.562012 406.572113 187.769943 373.336700 367.193726 515.081360 337.456696 349.645264 320.307129 312.298431 257.845795 435.209808 6438943817088999731757056.000000 389.128906 277.675720 485.699341 294.481262 653.493408 272.986572 330.239014 420.694977 381.459808 311.257111 414.723969 335.249146 316.090668 208.926926 175.468048 350.796600 381.477936 316.893524 172.347565 388.008636 382.345337 364.644867 315.599182 266.537476 386.911774 404.268951 294.407288 374.231873 493.869049 310.837250 317.586304 366.559692 469.721161 343.325653 284.121460 303.313354 441.417877 550.509277 374.690613 329.355927 inf 410.653687 344.289154 492.739960 551.993591 338.173859 548.776001 423.981049 185.084183 219.944214 410.381531 337.135773 403.607666 412.007843 230.935562 
/backbone/stage3/stage3.0/branch2/branch2.3/Conv_param_0 50740899576479144214528.000000 158.144455 209.078568 112.567062 1961564651152213024964608.000000 206.127304 177.259186 195.307343 163.197983 46870304311882765194554769408.000000 131.869080 125.350212 99.429626 113.165588 202.384293 188.027939 104.799294 139.694778 251.971848 570955874936947083606753280.000000 164.775116 178.440994 160.407211 140.586670 218.602402 788094786824847355663089664.000000 158.071594 122809115660373008190537728.000000 170.798904 843.267700 133.699936 137.266251 5922410276277576531968.000000 197.460541 127.391556 136.910904 199.554855 142.825256 187.991226 122.794006 156.121597 205.996384 156.465378 170.677231 117.076874 132.667862 94.346016 197.351639 92.977364 191.646942 168.702606 108.945404 114.522522 146.068634 110.742851 169.299561 264.406403 171.317963 181.219162 197.767929 8578885538079827820544.000000 165.525574 116.085983 128.016525 154.622162 190.014572 245.433334 80.040604 135.795685 78.017113 169.031723 105.969246 237.895752 167.036850 597.968445 337.376160 124.147987 135.758026 215.470474 183.536942 171.898010 168.781479 133.506042 180.083466 219.999664 170.010834 153.132660 182.169983 121.780373 70.930977 131.495850 190.649231 134.608047 171.603439 193.410049 136.221130 96.865433 105.304764 125.485901 99.588493 191.217819 1970319903623473787301789696.000000 102.541939 174.243668 121.487518 124.976898 178.858002 158.661026 112.614716 296.678711 105.518608 186.633667 142.796509 84.998093 161.643539 275.650604 
/backbone/stage3/stage3.0/branch2/branch2.5/Conv_param_0 350.563293 307.125458 271.810089 307.974060 301.953217 262.907684 378.779694 455.278229 121.102844 332.186096 424.239960 227.263428 268.577240 357.938751 414.240692 217.788727 273.566345 200.802856 420.475586 197.390900 301.154694 237.893127 330.815491 405.547577 287.048523 250.872009 399.135345 409.530945 277.878784 315.152618 340.580261 362.166687 246.152328 217.425720 269.040619 326.193604 133.506378 172.828720 239.632431 295.651764 429.018280 201.021927 317.692963 437.556030 280.949249 263.424835 227.544357 233.018906 240.722183 323.112000 217.506714 200.441391 305.028229 323.712952 301.267334 129.718933 462.960541 320.292236 195.450333 465.755096 441.543884 461.801117 392.791107 628.413818 445.350769 536.080444 228.162323 381.624359 513.675659 380.918457 476.806763 359.490265 642.350220 430.306122 535.721802 686.752197 259.169739 308.632416 606.097168 314.700653 323.811676 496.085419 270.925110 420.986755 474.810974 325.723450 334.887238 323.578705 222.577896 296.021118 537.506531 311.032410 287.836487 327.824432 648.143127 157.552444 310.352936 400.373474 784.998352 472.709778 543.521973 813.306274 451.790436 128.803848 341.177856 265.219604 333.746948 335.039154 262.964081 276.559326 428.634918 103.281097 600.811218 206.699402 395.075500 272.549622 
/backbone/stage3/stage3.1/branch2/branch2.0/Conv_param_0 189.692886 293.606689 115.989510 473.927124 445.088165 185.453781 133.220871 412.761627 455.603882 324.832275 526.362244 362.562927 431.123077 435.276123 2029113366335200870212304896.000000 460.840240 341.450897 222.926025 212.366302 405.963196 266.639801 116.055634 292.214355 299.721313 125.210815 292.724579 667.545471 inf 96.529404 201.874878 269.940094 319.188080 74.655014 102.246239 425.633942 415.524750 344.653076 91.148994 206.281662 1105653567592373620939161600.000000 625.197998 1011.162231 12937073037738752728766502404096.000000 439.272003 404.416595 122.835815 395.771912 186.829865 553.904968 288.686157 323.771790 309.270660 280.824768 262.351227 335.558563 286.794464 352.085510 471.623566 106.691986 487.127960 351.162994 487.022522 266.563599 231.715790 73914215737352646184637825024.000000 184.330948 367.531342 215.503113 173.336838 360.798676 69.834747 257.980499 294.346954 124.582741 497.681152 580.622864 416.457764 35512802775272780756403879936.000000 378.728790 520.764771 5710431226647238555216755294208.000000 184.628479 343.594116 249.723480 239.554062 350.369934 99.243858 109.552124 197.236832 376.489868 473.549469 486.781219 345.828400 551.022461 327.600342 399.954651 60.530853 119.322266 382.048401 431.813904 229.985855 423.400665 155.506531 462.666840 380.017792 646.457458 397.150238 185.859543 398.691223 536.702637 260.318085 479.343048 67.882149 480.686249 413.783966 48.966892 
/backbone/stage3/stage3.1/branch2/branch2.3/Conv_param_0 179.783340 79.296913 373.871613 111.513451 106.208405 168.934784 354.452057 87.702217 97.346985 49.805466 56.383419 98.266418 90.534866 49.326061 124954677504403625213952.000000 105.455528 100.993149 179.815048 369.490784 79.006699 133.482986 294.068207 74.429558 72.935204 227.295166 219.130753 54.821648 23183088761368490979528540160.000000 458.518921 188.047897 330.689270 51.247593 244.924774 606.036987 115.610977 98.888603 190.056442 469.530975 163.482285 46559131682080171229184.000000 244.883514 60.900669 349754141453788577645199360.000000 93.778656 124.014656 325.621246 78.005035 264.930664 122.845978 125.095238 84.978180 215.632294 146.261307 101.934647 118.530380 66.931686 95.277412 99.885513 246.760086 81.790222 119.996223 45.702450 178.483902 112.083488 493423814719530510319616.000000 296.424255 59.315685 223.155182 231.585510 77.791862 240.340546 159.222794 177.350952 417.233795 83.397438 46.509617 74.614456 365709763709038472724480.000000 71.136475 80.039452 164277829836557812397768704.000000 149.315155 101.688805 173.384720 167.204224 70.205391 239.620926 378.793274 90.499466 57.111191 89.769279 146.424118 210.019943 73.029289 146.853790 53.190403 809.496094 516.810547 115.348915 86.327103 302.918701 88.568581 237.067047 151.683075 97.587440 70.239777 77.634880 342.921600 84.280411 75.825455 202.173065 97.181229 430.195984 159.229706 136.562515 652.972107 
/backbone/stage3/stage3.1/branch2/branch2.5/Conv_param_0 354.904266 290.999023 379.379456 383.921234 410.013489 302.303741 317.035004 453.574188 406.877228 484.008148 436.511353 604.330688 419.500763 468.535400 386.751862 385.032562 174.006943 481.216583 435.454620 418.146332 420.467529 444.115753 460.333130 147.522919 325.062134 530.125793 432.143707 357.948669 539.710693 529.845398 210.484360 521.194214 354.803925 579.434631 258.233307 284.776611 279.514465 168.942108 402.411560 339.212830 330.193665 560.074890 255.131683 345.610626 653.701782 171.908737 396.019714 387.146179 391.121368 291.005951 326.984802 254.327133 406.529480 483.020477 402.650238 221.937012 179.381973 315.708588 358.159760 270.760590 289.431488 472.139160 222.242310 270.263062 189.563736 237.169510 214.196854 231.101212 303.711060 211.906342 271.210114 335.278625 329.593323 275.454224 209.181473 394.260956 171.811920 368.681305 216.439880 236.070084 293.450562 300.683105 228.522217 274.840057 249.307922 247.616913 371.371613 371.965820 340.506897 220.598755 270.230377 222.709579 199.511627 282.970398 287.723511 187.355057 343.874573 220.180649 331.920197 391.348816 218.228851 267.216187 264.703461 240.312088 211.890625 300.931152 369.301270 214.968842 199.354446 392.663025 219.633621 186.423111 294.113586 265.639984 189.566177 248.267670 
/backbone/stage3/stage3.2/branch2/branch2.0/Conv_param_0 371.235260 640.381897 220.131409 440.720825 352.956970 76.697212 465.775177 383077651290680223548947038208.000000 369.747437 308.934235 655.533691 419.395691 263.374420 348.606934 447.517822 221.858597 159.567520 inf 403.413696 156.125610 440.995148 559.002869 184.248779 261.170807 292.455200 542.317322 273.572052 279.771973 324.666992 202.706482 512.459167 208.672455 736.617126 112.955841 128.278458 632.973694 438.174103 137.032639 629.282410 164.433395 301.712036 187.751389 187.328140 273.030090 141.933502 413.371460 258.516632 275.334290 119.243416 337.684845 375.367340 439.597809 215.640213 148.933701 130.540039 343.628723 391.860687 259.419067 332.140503 200.385544 372.908386 227.693115 88.764778 346.542358 294262147869165514316054528.000000 153.245529 256.472870 255.988800 268.499481 246.184723 586.007629 117.046906 108.316040 297.633453 271.506104 249.378998 239.233292 273.679321 292.708710 61.838425 435.750763 154.242889 261.523895 291.826172 412.080872 428.414764 104.124527 426.787140 296.371887 657.457703 215.100204 350.508301 287.537170 528.807617 655.991394 133.542572 551.056641 112084842738704928424853504.000000 121.745041 83.236572 629.471008 66.485573 210.156097 704.988403 214.888733 927.136902 335.990997 254.202454 169.129074 234.554367 72.995918 426.107483 227.048401 168.093185 338.723480 119.858047 
/backbone/stage3/stage3.2/branch2/branch2.3/Conv_param_0 189.835236 82.935677 165.018066 179.693954 108.587143 1251.670166 135.733963 11187077519125855671943168.000000 54.788689 210.484207 82.114120 180.823837 186.975449 97.972832 118.806366 160.509949 278.454254 9321011686254588592438378496.000000 132.492142 126.172371 109.978928 115.732361 176.679611 107.404137 113.570114 116.902275 160.467682 158.138504 89.693192 175.824631 126.485413 265.359406 41.716499 186.417404 211.879562 62.889660 127.866943 175.927383 71.866020 220.880814 137.812515 131.624390 432.348114 213.548859 346.197906 49.607700 157.356598 189.461060 273.796600 147.902054 113.819557 250.343155 148.940521 285.891541 241.224152 96.485970 94.526604 240.579514 54.633022 186.475494 241.622162 217.634857 273.613861 65.849411 28365534943425115193344.000000 120.905067 154.034088 86.704651 201.689911 108.557564 95.794151 799.574463 303.263550 99.220100 155.039658 110.737404 260.585236 277.484497 77.708588 272.250763 62.466526 199.271378 131.406586 49.676155 126.579048 92.538315 437.076874 202.130722 140.890656 71.004250 177.355957 173.670105 134.563873 89.673531 91.610069 180.510773 66.615685 34826063450678589652992.000000 127.051910 505.949097 76.174591 512.469666 180.310165 136.897095 323.165619 43.931431 238.317520 177.191040 275.688782 141.145660 165.145432 142.425278 94.395096 470.030731 71.520134 105.800949 
/backbone/stage3/stage3.2/branch2/branch2.5/Conv_param_0 412.577393 220.589706 238.507675 286.714386 422.007843 295.799927 748.227661 382.844299 371.876678 239.188171 670.868530 516.086182 713.179688 638.198425 457.122284 468.656219 624.267212 337.584656 627.221313 529.033936 324.622650 290.148438 424.920563 381.657043 348.321198 590.958862 656.922485 734.799500 335.327759 298.662415 524.669983 344.846466 446.141357 706.461487 493.491180 387.647278 380.154388 281.047729 363.123871 464.985168 257.563110 636.192505 426.783905 394.147095 379.569031 450.803528 257.850189 399.653381 246.714630 580.442078 269.879517 434.939667 629.758179 258.074829 373.013672 192.044342 338.367920 726.011353 314.094299 497.628784 335.773346 230.317261 496.494904 398.456451 286.185547 453.377716 298.223724 400.072113 380.031219 381.091827 409.976410 286.362122 446.732025 397.163757 415.994080 636.896606 498.650146 518.483276 615.914001 512.224609 262.224884 408.434937 255.430618 463.815979 204.840073 410.455353 772.924561 385.530670 471.922424 474.412994 504.074005 305.358734 478.275513 479.883118 281.883362 314.071655 285.081329 451.463226 373.390106 478.823303 369.967773 316.696686 589.297974 387.344086 417.907745 458.774231 580.382507 348.800995 528.182739 425.287598 418.526581 495.871429 343.957031 358.353577 480.281647 470.750763 
/backbone/stage3/stage3.3/branch2/branch2.0/Conv_param_0 164.567398 393.272003 98.137772 424.699188 246.582886 85.200539 143.943665 244.515259 254.954407 202.862854 58.769291 412.405853 215.723221 442.034180 239.553879 429.219604 341.307404 422.503571 264.013763 265.265198 415.449188 391.082001 152.499939 397.593689 129.736679 137.100281 291.137238 432.789398 210.682327 126.867821 312.493134 178.365906 136.589478 315.208282 250.760056 184.610779 355.310089 418.293793 258.014099 275.472931 324.871216 281.116058 348.960327 227.932404 351.207458 411.785339 436.831299 158.174088 667.062866 232.056030 93.791527 516.634888 104.698875 142.266739 224.746323 186.912750 142.376190 467.598022 257.570648 94.788834 221.456863 314.000183 302.345581 410.753601 510.829254 153.166260 274.671204 204.203827 204.446732 309.720276 386.851044 235.785019 157.734512 487.855988 349.501526 206.137695 83.977409 165.176147 178.917313 351.373596 318.837372 275.662628 249.810532 136.373947 328.397430 336.314880 331.024506 323.130310 inf 243.750885 294.347015 81.952187 283.930237 431.463837 95273054326388593218115600384.000000 346.127533 243.190491 261.898376 232.717850 747.868774 317.508972 885899480572053192766864228352.000000 70.955307 276.570984 237.709412 116.829613 271.113342 196.067047 335.504303 230.357697 122.329971 235.702545 174.345810 96.585899 90.245773 inf 
/backbone/stage3/stage3.3/branch2/branch2.3/Conv_param_0 249.011200 101.485786 373.927277 144.792374 118.883530 969.739258 297.479401 180.887070 140.468674 101.067818 512.365845 133.924057 186.936295 121.922836 150.798050 75.901505 132.508347 96.944206 94.330193 94.427132 85.242805 86.037346 381.574402 90.568520 203.768600 230.879089 149.942871 76.778786 421.604858 270.737000 138.239883 297.527008 237.033813 118.374710 221.973694 191.049805 69.604958 220.214584 188.304764 115.515068 150.453949 122.921959 112.522522 109.587814 93.461174 114.599495 95.384056 426.338684 47.196850 86.718224 356.132446 111.215317 458.719452 311.302704 152.432907 135.700058 193.628464 62.590248 283.512268 351.256195 224.969315 101.738037 171.427277 112.898193 63.842621 159.914124 273.104706 298.270416 383.856140 100.519028 76.605995 142.048416 172.537369 106.759186 83.472588 194.309906 890.961060 218.003479 171.038849 83.720673 79.937355 242.572540 185.941223 352.803772 241.127380 91.108047 85.679260 110.954308 75998861919917105237417000960.000000 195.013367 94.515480 220.694397 101.846024 187.751770 1908204129269682402230272.000000 147.759003 72.194633 138.378479 63.069283 60.338112 91.782822 2304496252781125078876160.000000 519.740906 181.759583 191.631424 207.138626 111.334137 143.981598 131.397644 186.584991 334.380188 96.815430 369.278961 254.071930 238.546844 559889625943463894895862743040.000000 
/backbone/stage3/stage3.3/branch2/branch2.5/Conv_param_0 250.585678 563.865784 236.717651 330.386353 442.519592 344.016479 473.576050 671.438599 717.701477 615.192139 664.472107 787.963013 785.498169 469.264496 479.357880 803.247925 562.450684 824.119019 365.778107 578.246704 418.849670 532.374146 690.118469 648.541016 354.509674 625.811768 563.032104 554.096191 384.883240 458.167969 577.568665 492.174072 642.113831 354.150940 445.667542 321.463013 315.673370 585.315735 328.874115 320.495544 416.624634 638.747437 486.971252 323.172333 333.251678 398.543884 361.642212 519.271790 366.459564 424.402466 559.109070 416.529816 671.347412 391.531158 410.559143 360.268585 499.400909 287.074951 354.558105 218.462387 456.722229 287.485901 518.427979 325.563904 323.700958 465.900848 524.166260 299.001923 367.331451 529.639526 224.212189 350.605072 263.082397 300.480591 331.542175 559.389526 332.141541 540.805115 334.621246 349.575653 386.815704 233.911148 445.668365 333.838074 442.426880 324.712189 307.807129 391.034729 317.379120 276.043976 339.195709 290.243591 348.574280 417.966248 340.781586 359.933563 411.727203 359.634338 182.020187 316.916992 310.035828 560.311584 257.039948 448.994995 294.879944 326.553314 422.999786 301.568024 478.373077 575.554382 638.928040 321.425262 310.292236 434.449829 298.691803 367.778748 
/backbone/stage3/stage3.4/branch2/branch2.0/Conv_param_0 232.458084 220.933578 337.241119 102.745216 245.770599 63.329231 122.622086 378.704590 193.517853 214.514923 458.946899 242.202881 279.482788 285.621887 234.727859 83.059875 1381102563710293490815467520.000000 102.370445 213.053711 122.083443 295.680389 443.971069 124.654167 75.247116 96.467010 243.416504 296.981232 242.745926 134.389542 248.025986 207.516418 149.741562 392.984192 241.125641 224.309921 318.006561 107.725090 323.023376 332.050812 151.519409 494.435150 206.671173 245.863983 96.231010 372.930115 370.416504 173.473312 226.047943 81.174171 657.080750 329.928772 62.113968 89.513672 154.218643 219.386185 264.507080 457.966034 311.894226 117.886406 145.206024 461.355347 220.918732 368.464783 286.539764 301.252289 252.449753 206.417191 221.961884 306.722931 283.761383 286.145203 69.140709 87.062073 147.487381 307.613068 178.683670 272.584869 408.410400 55.495361 91.080521 233.910431 204.982452 303.445007 574.777771 159.370987 230.323303 129.574768 223.306686 73.230865 398.381927 237.235947 299.582703 112.449921 244.289276 302.518280 152.489197 391.028351 568.051514 111.093498 76.843910 265.343475 127.186157 151.462830 353.830017 524.265686 311.240631 76.300682 175.043564 194.027893 433.735382 157.658249 201.769104 215.362183 256.958801 144.128769 135.147629 
/backbone/stage3/stage3.4/branch2/branch2.3/Conv_param_0 134.528671 155.912033 130.929611 224.281647 207.387909 460.388092 283.774902 55.064659 157.853561 132.175720 107.341766 104.791382 91.911682 151.255081 196.088196 109.863380 232842712019307623088128.000000 184.479782 217.573654 243.237305 228.988480 75.966919 228.117203 305.942261 325.991425 104.778687 134.917068 98.990768 437.729126 90.836815 253.515121 236.470673 93.481857 157.390106 135.165161 117.261696 198.609436 114.677689 107.461510 106.331337 122.018463 157.325867 108.523338 361.983398 208.343414 114.757072 262.837891 112.498711 291.625092 53.057198 164.877243 227.271637 130.841156 216.771164 162.030777 199.535919 96.109474 120.410393 574.918762 292.766998 67.205208 118.812851 106.390503 162.207230 89.026100 66.341881 201.462555 121.715492 149.277069 72.154045 237.982056 119.347305 400.730713 298.012360 139.821411 82.571091 200.226807 99.347839 1238.983521 110.853683 273.047028 202.440430 95.341690 82.413414 159.766861 220.931931 320.936035 173.936050 295.285767 103.550278 78.930191 89.061340 570.682922 224.294449 185.285126 159.685150 85.683128 68.833977 238.966507 564.678528 221.361893 73.242470 148.508301 95.482567 64.467041 92.416832 113.460167 239.873001 138.143127 91.939224 136.218002 135.820587 125.598541 101.617416 297.614471 147.914688 
/backbone/stage3/stage3.4/branch2/branch2.5/Conv_param_0 422.467773 219.142807 440.140167 292.214172 829.502686 309.288849 221.958084 623.470642 395.095795 700.153442 635.913208 555.606689 403.368927 194.940140 495.036499 685.394287 765.000061 680.527710 812.706055 777.855652 807.864075 481.015228 747.306335 609.510864 408.869324 822.888672 602.291992 328.881500 640.947510 555.539062 533.108765 646.548828 311.453369 336.783173 591.426392 288.376923 303.436584 592.015320 496.187195 624.594727 456.255188 378.208679 498.589600 704.746643 594.941345 466.327667 540.434875 225.487335 346.194489 410.652039 598.593323 285.767578 760.330872 605.226257 403.791809 554.380615 484.181641 364.143616 433.694763 434.203094 452.721954 430.333801 412.788422 238.488541 397.416199 442.570343 349.868134 339.854126 391.324524 715.825989 216.457886 301.165833 395.761597 369.514008 266.288788 678.820435 535.918884 256.628906 374.330750 345.840240 464.609253 366.333893 467.570160 482.195343 484.394135 402.528931 608.236389 562.372253 511.880127 416.931396 428.977264 437.145386 481.322083 338.841339 546.980957 361.703400 501.915466 401.740387 601.975830 371.712067 309.481110 498.964813 332.227264 295.472015 513.761292 509.979950 410.481262 485.526855 392.764252 435.366455 415.115662 266.658447 369.935913 250.032913 374.914551 374.951813 
/backbone/stage3/stage3.5/branch2/branch2.0/Conv_param_0 353.396820 190.363556 228.282715 270.261749 223.334045 212.025925 368.871552 278.143829 256.394928 321.746674 138.886246 80.128212 159.522629 273.802063 205.326767 210.540146 148.704086 200.628815 388.114136 430.573181 33.657478 196.726944 243.801529 60.077850 278.217651 310.338379 424.184692 319.691589 184.451889 240.332443 190.291397 140.648315 637.295959 104.654747 343.176941 209.288162 92922930867256651320358076416.000000 286.753937 229.123413 190.913193 161.137726 104.378754 267.585052 166.370605 367.648468 273.868866 434.565247 133.648224 213.628937 99.248466 330.964447 206.735382 358.532288 177.893066 15571399346394241104347136.000000 427.832428 112.428696 164.639847 418.313690 184465967358752860830693326848.000000 207.071793 238.868942 330.555298 474.315308 75.319275 33.730679 498.148560 263.872559 307.300049 77.925285 47.977947 255.027451 306.271332 367.955750 30.917789 475.063477 287.688812 40.667221 219.697830 107.046196 336.384613 370.914520 211.958008 184.179718 306.775726 512.606995 436.270050 inf 438.981415 223.508224 320.918823 280.108093 59431741090097748097828581801984.000000 339.640015 163.353867 99.875130 320.962036 383.482605 195.067780 323.990723 176.196899 160.959106 223.364182 223.663055 530.277710 240.223618 59.003986 291.153412 166.586823 258.832520 144.306763 200.552063 260.802460 237.816315 159.546143 351.306763 
/backbone/stage3/stage3.5/branch2/branch2.3/Conv_param_0 227.684921 113.992088 76.608902 171.117905 137.940323 195.831360 70.516830 201.987762 88.758408 96.615555 117.642532 261.737183 270.412964 83.183006 191.335541 204.200684 383.859253 223.237457 73.845909 113.597656 548.084656 79.905380 328.885345 419.027863 259.344238 118.320518 81.755371 72.266205 83.448677 387.873383 200.236557 215.103775 60.434765 446.380829 93.235695 211.259308 1880256159076507824685056.000000 110.879753 137.168076 160.528320 148.423172 522.803223 159.419769 180.627960 156.118561 141.228531 70.754845 188.906128 53.878674 142.133682 99.669464 167.241043 97.180611 251.490433 16110187640937097723904.000000 39.670231 307.725128 237.216751 249.104858 3637482046783785946578944.000000 246.127914 231.423798 142.869110 76.153305 334.979370 583.170837 52.761822 92.846840 169.429123 352.938232 587.921387 109.241173 183.856323 77.267082 678.808716 51.792778 120.736450 584.980347 112.578468 370.413269 131.852844 89.988930 248.450027 175.165985 131.629730 65.146996 71.853844 579127413626718940781608960.000000 120.513054 155.865692 155.296692 71.349068 898480767444711966077091840.000000 76.659821 151.382278 316.330109 93.692574 91.574333 193.919312 155.800629 213.179794 178.554352 273.603882 245.865570 63.556049 91.671875 482.163544 111.421501 135.832504 153.073654 262.986084 126.152939 128.420929 125.910339 295.251465 115.662895 
/backbone/stage3/stage3.5/branch2/branch2.5/Conv_param_0 689.194458 493.454498 794.679016 526.136780 389.691254 356.087891 396.726929 590.174072 795.971558 473.411469 408.427582 525.536255 589.226807 723.861145 483.476044 682.529480 280.095367 524.648560 437.991669 300.646576 346.585602 608.210083 465.432861 447.853455 233.925552 384.406067 653.348755 577.297852 208.374786 478.652740 835.571899 611.696899 399.995270 656.569885 493.873413 764.494995 439.303802 698.922913 656.467529 385.859894 425.560730 796.464661 644.861023 667.135864 530.336060 565.539246 607.778992 574.614807 746.081055 754.025452 618.390503 572.786316 539.660889 639.312378 672.899719 727.188660 583.537231 549.806885 326.550598 511.926086 263.287445 427.950439 510.662842 370.958588 495.950592 430.475189 501.604706 506.751770 422.694550 450.264954 467.082611 430.353546 572.778015 457.569946 328.968231 393.927155 257.554535 211.305756 350.254730 459.693054 561.667847 390.981018 562.857483 688.034302 506.674469 378.720123 348.305481 473.765472 640.369873 287.320190 404.467072 480.460632 372.699982 500.618622 389.169037 492.052521 350.806976 677.675110 382.881561 394.682129 322.999664 217.080246 345.216309 685.118713 201.371689 475.172058 419.985687 344.284485 402.247772 308.026886 292.771179 572.439453 442.459167 412.357269 408.338257 386.560211 
/backbone/stage3/stage3.6/branch2/branch2.0/Conv_param_0 260.177979 332.306030 201.558731 370.044800 2042802955432753096655730900992.000000 142.031616 325.349548 294.056580 416.442017 255.373550 477.372192 296.820679 625.953125 582.068298 261.824799 168.008850 256.520203 275.729523 122.111176 214.736618 383.823334 250.609879 298.708344 217.223007 239.190613 349.118805 364.610260 316.515076 413.679993 470.734161 223.076523 151.787994 45.761814 579.466003 378.547302 372.804535 275.354034 551.803955 163.826508 245.611633 140.969177 264.996094 497.472717 275.225616 288.314392 70.132591 374053246720848194502735691776.000000 231.738373 174.473404 187.637466 270.259338 296.966797 112.946373 421.618378 230.551590 63.720345 103.353539 90.807312 267.118164 302.153168 340.566437 290.081024 114.970100 291.747711 261.945068 4402765181789764928037277663232.000000 241.541122 231.398010 280.881409 183.814392 106.444153 122.117920 396.681458 289.509949 293.994690 285.333954 289.238342 217.654358 265.465118 191.358307 217.440552 234.280533 201.988510 383.030243 447.617188 355.413696 286.158630 105.770592 338.366119 114.397202 2759476546427968142061284098048.000000 186.101303 213.336670 308.137360 149.750168 237.815216 321.669495 390.955811 662.098328 404.084381 283.735748 217.640793 208.932007 251.131622 157.968384 576.546387 300.147125 293.210999 328.493927 470.029114 194.537521 105.537361 165.774292 245.149567 141.637085 240.007339 
/backbone/stage3/stage3.6/branch2/branch2.3/Conv_param_0 170.744186 185.161163 177.440979 230.983810 16484478590397725703929856.000000 71.065536 111.369980 92.584793 56.345642 115.941887 78.728928 40.670242 49.874275 72.896996 104.517776 162.450134 95.434456 91.140488 159.088181 247.079361 253.598984 166.023514 64.586128 183.809967 145.693130 78.045448 119.710625 96.446640 152.187439 53.941929 77.040062 864.821777 585.700867 54.332886 83.362312 169.783035 150.622940 59.637234 143.871033 206.957947 212.333847 269.937683 89.918091 214.494049 74.114105 138.786743 2355458986164449611612160.000000 447.134705 177.902527 161.504288 205.048370 54.113674 183.837875 88.794662 196.945709 455.625214 331.836365 411.984619 235.449249 145.212723 99.165672 135.180725 228.875671 243.131805 109.016182 28535153115470844710092800.000000 70.483177 449.095215 169.440796 332.232056 355.072174 278.961304 109.253113 64.833885 130.345688 235.501343 131.693329 150.438904 207.693222 142.424118 222.041153 147.309494 220.790222 113.737595 67.728462 205.607422 123.141197 409.989532 116.152977 306.046356 66590689294127262718754816.000000 91.189392 190.780716 171.592819 102.620979 141.496704 178.717773 94.615799 55.091095 70.722633 221.621857 129.116486 300.027863 40.524410 205.639175 59.873638 119.220970 188.648361 76.323036 64.205940 255.547119 286.165314 207.577454 112.383469 493.590942 249.839737 
/backbone/stage3/stage3.6/branch2/branch2.5/Conv_param_0 410.734467 147.952011 259.601349 382.510406 503.140259 454.139160 389.434265 514.234924 164.572266 366.078827 581.271179 455.236603 525.886780 561.486023 461.115814 426.935699 314.869995 730.659180 320.961517 650.667542 617.117554 606.944214 589.627869 438.511261 383.916687 553.373779 238.582489 413.478943 414.948059 379.592285 223.778320 664.082825 470.689148 354.512238 403.007751 638.209045 460.753204 337.463257 251.210052 348.771393 746.696533 532.669373 1001.437012 367.395538 614.648560 438.117523 427.159454 171.979965 346.820435 482.841949 389.036346 288.251282 682.343384 442.717377 541.889038 425.742828 519.944519 428.928162 359.727264 458.386047 301.784454 370.600586 335.173218 218.376312 396.850037 348.787048 382.002319 591.388794 308.569702 362.474274 738.055420 521.288208 394.657013 557.770081 348.764038 233.336044 425.502655 578.855286 460.886292 232.644241 394.425171 281.185394 392.823608 451.371216 399.587097 348.389709 481.476257 476.225861 496.802338 493.570343 273.810059 452.740723 538.768494 431.111969 572.638184 431.611237 480.787872 376.440247 526.712952 229.911804 329.591675 326.032898 517.509094 406.983826 392.495300 319.529633 421.935486 308.611572 509.901733 413.408661 369.608337 514.234314 481.175385 558.687317 409.502045 451.513275 
/backbone/stage3/stage3.7/branch2/branch2.0/Conv_param_0 257.118500 406.927429 294.511871 307.276367 364.570190 192.941452 132.560425 279.213257 259.783966 208.889191 290.506958 334.721649 134.544647 inf 168.439911 331.352142 140.882355 80985200793382404260511810060288.000000 273.987579 99.390968 316.618652 123.895760 135.034500 264.322174 212.575623 5867456183505343509460991082496.000000 102.459068 142.611435 400.962982 98.604866 99.320648 70.703659 240.467972 84.107750 345.256897 109.026344 125.427132 inf 371.107819 221.701477 340.666107 181.524521 315.004303 388.682343 365.733704 194.642120 587.630676 243.670547 inf 307.858459 260.474823 103.564873 196.373962 150.842453 149.865784 428.286072 inf 650.008728 66.078697 211.689117 505.612549 65.399948 287.426880 81.252617 434.235077 68.310814 252.573761 520.542480 169.179840 197.465027 109.334763 195.185486 363.807770 318.522980 323.094208 106.446548 295.024170 322.749451 213.705399 522.089966 134.174484 256.511993 420.019257 238.175613 344.681335 377.974396 327.959808 86.178871 243.175247 204.199051 217.678375 410.542328 167.954971 213.243988 275.426880 302.602020 289.931549 296.379547 279.929504 325.384705 259.644012 295.447113 196.525024 230.087875 326.499725 375.741425 81636125518078466905878822912.000000 182.963318 176.004318 463.266327 251.024017 175.172577 128.587631 275.995667 146.695450 263.766724 
/backbone/stage3/stage3.7/branch2/branch2.3/Conv_param_0 106.626480 75.478012 121.514275 100.873932 190.057388 126.786224 125.169304 106.769722 55.003998 186.413361 214.499237 166.168579 271.774841 5867242255581303031663165440.000000 44.373920 67.205750 287.989319 77514878804694169750077440.000000 158.595078 292.456451 181.152206 472.730835 105.575523 100.903229 144.378250 11757336706655998930059264.000000 196.554306 346.983032 63.965183 453.220856 317.927216 382.952850 72.874634 377.355347 184.042130 289.449463 214.496094 68472802844335337312123617280.000000 185.893295 92.246956 133.930222 233.385162 154.250259 76.502106 85.275963 122.173325 55.690987 131.372406 99503926350454131497260548096.000000 106.494141 143.713257 765.690735 142.009430 358.190613 174.325150 114.517303 383249092083474323148785057792.000000 52.293476 534.994995 131.646698 61.640327 511.270874 240.699585 412.171387 88.377319 203.296783 78.477676 108.968636 202.079041 163.690002 938.375549 184.466415 162.542557 280.778198 194.200867 195.772568 102.002907 130.572617 74.743835 88.932281 222.605545 124.292839 80.665138 121.435730 135.346985 125.403091 162.041763 325.698792 114.703041 163.144424 350.322784 104.838921 81.103088 197.919876 216.852844 242.903076 94.792885 201.698456 237.206604 147.656830 210.482574 325.511902 356.988098 229.496185 98.443474 63.140236 4596543259155505424105472.000000 176.762451 119.178040 127.234680 148.666763 208.283798 226.679581 125.955521 210.409058 114.968391 
/backbone/stage3/stage3.7/branch2/branch2.5/Conv_param_0 361.331543 569.948242 536.886292 374.006042 355.427765 561.044495 469.126038 455.613281 428.896515 407.720245 336.915161 365.893616 399.780853 464.158264 294.013214 256.077606 542.020935 413.970703 477.429016 471.875885 539.491028 249.999207 480.764496 369.112122 836.348328 376.693359 711.546021 370.230042 584.484680 414.631042 485.301636 525.706055 519.348877 623.256287 305.106049 306.472595 303.348755 394.391388 548.861938 648.011719 507.918091 699.406189 296.637665 269.774414 475.354767 237.343124 535.204102 508.050323 352.864380 394.304474 483.735413 648.795776 452.170685 458.055023 470.064178 427.679382 184.196259 212.510422 437.994659 369.999695 426.647583 592.307983 797.318970 415.977875 566.825562 215.254288 386.560638 177.664246 314.867950 356.767181 291.768585 405.435425 518.985046 594.695618 457.661041 395.082886 455.556366 429.874603 357.641632 428.476044 484.674713 702.030457 337.501709 475.152924 406.348022 637.423340 280.832825 521.341492 299.777863 528.392212 434.640015 476.865295 523.408142 342.158173 590.135986 366.625122 504.350098 506.618011 532.157898 548.904236 333.471832 332.299255 469.536133 384.346558 182.077042 541.984314 356.178558 557.693176 346.908936 379.769562 387.967133 560.396362 526.039124 505.103638 343.961273 411.528961 
/backbone/stage4/stage4.0/branch1/branch1.0/Conv_param_0 532.671143 188.087860 275.513580 227.603516 312.257446 166.567978 246.027618 213.400650 426.294067 394.106567 415.062805 187.292908 256.854065 128.401825 220.785202 184.359329 371.151001 167.152130 216.860931 220.974365 243.023315 159.349243 263.527557 157.075653 406.026062 173.863098 330.053284 165.537842 335.509857 178.229462 388.710388 187.790115 378.054413 153.460526 248.945450 188.022400 206.813141 239.543015 260.084167 161.657700 270.585419 141.025360 262.451935 244.941269 262.522156 332.267273 308.170013 192.326553 371.030518 164.279709 395.577576 290.476257 182.533096 147.419510 381.873657 155.380875 495.725647 187.315826 231.248718 177.685928 222.697617 206.660553 251.124344 227.815598 442.718811 178.786301 221.881393 159.525726 255.721954 349.903961 195.129883 205.534576 352.079376 157.048950 235.051605 191.465683 299.449097 207.255692 250.657715 248.327164 580.204102 232.902649 233.502747 198.565186 177.152405 170.275757 299.303345 192.669693 395.235779 147.279144 314.196350 190.601562 300.893768 187.645004 225.832977 199.131332 474.806061 131.918152 194.792496 193.147186 226.394547 242.225342 448.949554 94.292496 309.865936 339.809082 232.998184 235.126022 297.397217 146.204620 357.263275 163.978149 391.047485 356.524841 334.874969 169.340317 308.343750 134.535812 233.606110 152.666672 223.874695 234.004913 215.240265 169.137238 206.634903 171.445068 231.407166 231.895294 440.171448 126.508148 260.472473 187.745605 455.440247 219.056793 384.320709 376.592285 312.783081 201.066147 201.343506 217.071198 260.596710 261.833130 299.241638 236.589111 306.368195 198.657318 243.651733 187.273911 188.673050 400.567322 172.738464 156.205505 296.335541 166.079727 303.885345 174.589188 270.824402 156.326431 245.309860 208.884781 606.922729 263.877655 238.469131 207.124619 242.697372 194.728729 334.535248 222.686447 226.329361 407.217255 179.046524 174.526703 228.913376 340.632629 295.470886 242.265198 370.309906 364.474060 282.816101 180.556854 180.894180 204.181747 344.020416 180.522400 225.534470 320.053131 281.635956 215.401016 215.796799 131.670639 476.890228 281.166870 415.877960 176.213913 289.863464 187.543762 363.655945 188.328293 182.266327 405.292206 338.910431 202.424744 375.463715 153.862534 282.653412 237.836060 182.534988 175.724945 386.962799 264.573883 322.371765 199.707855 246.284546 166.932663 216.857422 141.365570 194.342926 114.814690 459.255554 157.075638 272.694275 153.672180 415.651581 190.142807 350.208221 169.071884 309.838409 118.828773 513.911011 193.170059 238.945877 228.659241 
/backbone/stage4/stage4.0/branch1/branch1.2/Conv_param_0 610.140015 989.972839 1108.752563 1229.327271 1268.739136 1366.136475 1110.820312 1056.624146 812.708008 1377.216309 1545.656128 1418.021484 746.719421 1113.916870 1170.676270 761.350586 1079.735474 902.211853 1120.430908 1104.850586 874.340332 1464.836548 845.509277 994.308167 1034.994141 867.980591 1526.665161 550.791260 1011.583740 996.440063 1245.494995 974.993835 944.728638 993.928528 500.656799 686.418457 827.453186 672.928101 827.914551 776.162964 696.763184 1201.363647 1119.699707 1433.270874 965.397522 1007.369873 1193.927734 563.510254 1004.796509 632.637878 1095.023315 874.842468 792.067749 846.867432 922.109497 1004.523438 913.329407 583.111206 792.668945 975.515015 822.987610 816.527039 577.605103 1070.182373 381.638367 765.309570 884.058899 708.235962 506.401825 875.775330 849.477356 925.377197 831.346497 912.329529 575.078064 709.671875 697.237732 642.834839 797.440613 613.974487 1046.574097 849.075256 803.876953 1018.236877 544.375610 777.198853 933.857666 880.283936 717.739197 969.992615 629.764832 652.780273 956.065674 963.483521 865.598145 1022.487000 794.138428 693.064453 371.345581 879.323181 1050.201172 873.658020 595.536560 754.496887 674.076904 861.452026 588.844910 790.388367 929.071167 759.926819 821.870972 938.968201 729.452454 864.306641 720.155823 813.048340 810.477966 789.050232 451.323273 378.097290 493.830414 687.390015 684.118469 527.949341 701.687500 888.554138 808.522644 530.122620 566.161987 812.191528 655.271973 542.433899 813.578979 572.264771 598.276733 637.823425 763.874023 828.078918 717.437439 622.123230 697.840027 718.092773 717.397156 660.123596 533.652283 587.379700 472.897614 684.882446 702.249756 848.819885 528.092224 559.538940 694.036804 611.130005 707.077393 447.191956 554.663696 309.739410 620.814270 379.051086 683.720581 738.664062 724.578857 543.656067 326.695190 479.235565 539.651245 739.151062 623.523499 706.367310 831.320435 736.786743 617.181824 566.212158 729.935669 664.950623 675.318359 770.699280 580.269714 679.373535 807.038025 759.278137 494.913544 672.762390 615.816223 736.694153 598.966187 505.201965 534.556091 838.521851 690.205750 566.556091 712.755615 678.033142 584.949219 798.066833 671.785156 599.589478 557.273010 569.415955 553.416687 620.719849 859.805176 815.317932 584.294250 905.988098 689.624023 781.370056 719.073303 717.712708 837.161682 662.090210 717.927246 253.569046 771.004883 636.917847 427.552094 621.430481 556.492554 652.016479 776.084656 885.639465 782.478149 639.281250 707.227234 538.508850 834.598083 538.811279 603.674438 767.213074 585.054321 652.763977 
/backbone/stage4/stage4.0/branch2/branch2.0/Conv_param_0 53101408970926716140697740640256.000000 547.786926 544.301392 602.167175 inf 616.864258 564.093384 4172534930850715718747884093440.000000 421.390869 371.891418 inf inf 15126970011876889125191680.000000 441.100311 411.291412 510.976501 501.810211 425.241730 433.915039 525.111511 515.429810 599.245911 445.105438 488.838776 534.864868 505.533447 610.330811 inf inf 450.638245 433.260010 656.392700 inf 622.898865 511.755341 465.010040 447.981781 493.800507 552.113403 456.093445 391.332672 548.311279 625.158508 500.028778 420.538544 431.474091 526.561768 560.833862 497.877045 421.791138 439.767395 522.978210 433.639221 518.107422 inf 426.753052 456.953125 558.627563 519.892334 508.466827 492.050293 inf 655.396545 559.089050 399.477417 622.933411 420.079468 11308453857727279585550139392.000000 518.777161 119750845972166557608011890688.000000 448.548187 400.451752 464.345764 504.221985 458.889069 23556893989401658860264652537856.000000 570.087891 367.129120 inf 488.364380 44548633295277553646305280.000000 597833689517594042359263264768.000000 inf 505.093872 575.991089 312.123596 601.139587 137536930974922645858615820288.000000 331.081482 437.587036 172620024373269944683622039552.000000 490.587616 427.652100 79267207040344703820170788864.000000 399.706390 427.338745 530.201294 1160150783609333749278310400.000000 595.461365 528.657227 550.185852 474.282166 433.488647 8437805191837789609290366976.000000 432.969574 inf 530.278748 inf 520.666565 521.529358 inf 1447472120151079966259726516224.000000 268.408722 564.085510 360.397675 449.513702 524.721008 496.424347 485.195953 546.183533 564.080017 322.374420 428.324402 353.918823 576.710571 147402738470473491071132237824.000000 503.367584 509.906647 531.878174 434.468658 513.346558 500.665558 490.277802 525.192017 451.708099 410.127380 454.210632 157518684553533600751943680.000000 486.199310 433.641510 494.928711 600.405090 385.849121 166.637253 427.327545 147084915713339505508352.000000 22935055906588728603969585152.000000 53575172190292399035057700864.000000 375.449158 439.343597 350.224884 457.640533 409.543121 491.927765 498.694916 402.865021 396.837708 inf 443.519226 433.287506 inf 415.075104 330.040283 447.420898 530.977295 438.085785 421.970459 404.856506 518.553345 453.134705 578.525452 572.061951 476.813019 541.225220 inf 386.730103 480.555450 467.798706 67481020653662428985890640494592.000000 573.462158 540.151123 503.358246 120031439543845706187319279616.000000 430.753052 511.692352 565.738403 458.188110 485.925079 618.180542 550.572144 571.936523 652577779638658198934776709120.000000 571.280029 456.708557 424.784302 644.577942 535.682617 544.798279 547.925415 628.892639 500.475342 355.237030 684.219177 627.447449 637.558533 420.844452 541.329407 485.083282 520.777222 590178166764884403110436405248.000000 448.152802 550.302795 547.670654 410.545441 383.137329 inf 488.522827 492.269226 536.581970 525.270264 494.075989 570.303223 548.940918 595.148071 580.483215 582.376892 21302198978787590864270646050816.000000 530.475891 441.284912 1138995958926203305581237764096.000000 414.284760 443.466370 
/backbone/stage4/stage4.0/branch2/branch2.3/Conv_param_0 421534370247824216827101184.000000 107.830208 120.915253 97.991875 938676813077135437754007552.000000 133.287369 131.230545 17801736373349728041041920.000000 167.231995 107.129723 1060448271713246173101817856.000000 48340353386167671401352265728.000000 6202418768359570014208.000000 144.957428 150.988510 109.696999 122.255661 131.833847 179.781693 124.027000 173.717514 86.041229 133.718079 111.292160 141.323898 156.577988 102.607277 42875536444861260567158980608.000000 23094423969469371955818790912.000000 123.480202 132.168793 104.664566 230576891528357772726659710976.000000 84.225998 163.059128 145.039963 162.652740 160.014450 156.705978 114.009781 127.450577 95.542259 117.791542 143.246933 130.604309 130.659409 137.406921 94.580940 135.213760 111.064461 106.682884 114.439621 167.213135 93.076935 259542111924482617480870625280.000000 130.402542 120.908676 105.528557 96.452164 88.379356 146.564331 87647783053368216916527677440.000000 94.632538 118.079582 143.339890 154.023849 105.912064 421790820054471064682496.000000 120.042168 2366364326561337701302272.000000 170.013275 258.635223 138.862244 114.604942 90.447853 261710377640655059700154368.000000 158.687225 141.572128 61065119329379662783401951232.000000 147.889648 8581907453429793423360.000000 14520819224986830113865728.000000 35199020411952024310534635520.000000 98.212135 109.591080 188.746216 98.878181 363790689835823356968960.000000 135.570312 86.290009 2040881615443897972948992.000000 129.392563 98.626541 1618182545445375845597184.000000 107.736565 114.653610 103.701897 111983436879248886857728.000000 109.521072 148.805664 120.878113 169.501312 115.934967 280474961420597636104192.000000 135.119186 4596199607842627261227335680.000000 127.211487 181370626134425191700343291904.000000 126.466866 140.776611 91417175979994767726099824640.000000 2282089943915031387176960.000000 87.631950 106.161240 138.118408 106.358047 145.616394 103.116455 127.788727 135.656158 106.238609 125.288170 90.194016 148.778458 70.733261 2486809315571674625605632.000000 76.772141 140.116714 83.742737 109.564903 121.011726 110.286621 100.438354 144.471390 117.581375 164.874634 136.363953 6200129813848958959616.000000 123.120201 100.500160 92.423515 123.165939 124.024734 805.340027 177.926819 961192713158058311680.000000 622671791763104938852352.000000 1327545013307233080967168.000000 121.552795 109.508377 175.632645 113.007065 106.468544 201.355789 71.979637 193.711609 135.656143 182024314992449939469403947008.000000 211.076065 131.548447 6942771257083640827078508544.000000 111.538246 163.818176 106.472397 106.771690 124.884064 211.065186 405.374298 117.701653 99.637749 106.201042 137.447830 90.686905 107.388695 343314381031621236920583979008.000000 72.583862 96.662224 122.777237 440925403150666960390324224.000000 88.264572 130.296585 113.802826 882287664976791271899136.000000 111.839691 92.900452 108.763283 121.243874 136.777130 131.179108 106.971725 103.133621 4166953753784700475801600.000000 125.936966 150.356735 141.104767 133.713470 93.202545 82.001564 71.077660 104.860428 104.781242 92.872917 100.150894 122.677750 110.954803 127.424370 144.060760 176.011002 118.842201 3282943696137620612448256.000000 137.197906 126.470711 143.091629 155.668625 168.855347 22721968563782201602991980544.000000 138.796158 131.026962 140.805908 110.754471 120.810547 95.100540 113.728210 84.028145 107.927925 88.796349 111960788384809231690235904.000000 100.767570 122.560905 2185582343528906047356928.000000 184.247559 91.991035 
/backbone/stage4/stage4.0/branch2/branch2.5/Conv_param_0 1098.205444 711.753052 643.735535 1281.159546 850.062744 651.100586 956.129395 855.407715 364.934113 450.281494 1095.333008 514.187500 430.005402 590.591248 812.341248 480.604980 838.978943 813.883240 766.520020 752.604187 757.218628 721.159851 573.582336 1013.060669 757.864136 1008.148132 952.358582 692.404419 677.511963 578.357605 569.619324 766.596191 204.703079 749.373962 917.556946 818.900330 866.584778 1156.867310 923.830444 790.343079 799.436035 724.696533 951.521484 648.563293 464.012695 826.201111 952.400208 776.120483 656.049683 989.545471 685.195984 726.350830 1014.211731 811.014526 682.418701 854.972595 937.383301 908.400757 673.416748 734.054199 343.916321 733.745483 539.176147 599.593567 324.522675 466.653778 681.348816 506.181305 404.963837 267.344208 544.208252 271.980164 237.465317 631.184265 682.507324 197.102570 450.247192 862.851318 742.172180 667.795593 713.918762 537.778931 434.960144 388.503906 586.304016 677.487915 681.051270 652.466248 381.442200 383.090820 521.272156 408.100677 574.032593 387.344818 526.202881 829.894043 553.982117 434.248474 835.901794 501.991547 673.492371 624.898315 671.075928 371.182739 683.648438 966.475769 733.957092 528.740112 741.060608 439.608521 693.384033 439.202911 554.334778 530.318848 290.775391 226.665131 454.634155 536.529358 526.928711 286.882751 574.344299 428.821564 479.987549 554.159180 520.939209 461.723297 447.233917 356.905029 484.626831 441.710114 299.281799 478.412323 491.012665 427.484741 255.110001 448.300598 534.031982 487.577972 598.424133 590.845398 581.212219 516.922241 662.115234 361.986633 587.943970 519.469910 400.450928 626.292480 586.786926 541.878967 279.083405 724.736267 390.347900 373.522278 507.101746 400.246246 580.373169 607.574890 468.808289 340.488922 476.018768 422.065369 492.168030 488.674133 421.420380 545.200317 423.740112 501.276886 605.009399 369.020996 676.517334 341.116119 631.963745 546.586975 605.867920 455.682983 618.099792 381.977905 307.055878 338.708984 502.905182 327.261139 419.996429 490.205627 464.243225 404.886780 394.950775 545.853149 261.115997 570.375671 327.849121 502.699615 428.510864 395.810303 515.748657 592.411804 247.356445 563.029602 290.877960 434.063080 703.467834 579.514709 519.684326 294.732880 359.173798 655.169739 316.083588 590.846497 331.124512 474.443848 608.923828 620.617249 451.137085 438.257935 457.003448 451.389343 531.658264 410.739655 424.880035 615.911621 515.593567 527.629333 350.535736 507.436096 447.762817 308.330994 489.019470 392.649139 249.809448 608.558289 572.543701 534.239197 
/backbone/stage4/stage4.1/branch2/branch2.0/Conv_param_0 372.221222 378.333405 369.084106 252.724564 97.874214 375.642487 473.196136 259.471497 295.935333 428.437164 395.087372 119.984894 509.753967 506.572662 292.899780 311.789368 359.277527 384.875092 416.258362 248.143036 97.657822 106.648026 338.807404 499.769836 134706835631204798960628662272.000000 406.780914 117.881889 190585323184050935970085732352.000000 363.956146 234.934982 385.422974 306.392426 294.945343 469.177856 208.850708 209.659195 385.056702 309.052063 178096839224495848799862784.000000 362.854279 419.259857 340.581451 inf 431.141724 383.270142 426.004913 313.370026 376.073914 266.194122 272.501953 362.899506 526710203476958041710111227904.000000 360.066193 123.623505 299.301727 429.727875 117.476440 374.898376 284.778961 358.395142 357.681885 509.301849 89.966713 335.220032 310.697021 284.210541 157.388290 206.635178 326.396515 17974396449810239657967878144.000000 389.231476 450.556580 269.684509 315.534027 397.350922 246.431503 438.107727 393.556549 397.697632 193.811783 354.643341 313.551880 343.200287 126.159378 276.969452 544.469238 88.455414 388.783600 281.750244 337.312836 390.090698 155.100250 310.236328 310.159332 410.795013 390.822174 420.936493 165.251419 457.590271 185.104309 92.715294 313.918762 269.004974 450.516296 319.580994 279.303406 159842918966588783126904832.000000 435.748901 448.119995 413.204041 257.160126 249.325928 114.804344 302.186127 310.560059 327.335205 403.635223 353.357574 299.180664 416.813690 11014295982673064099840.000000 273.449280 395.712341 533.303894 279.139191 415.680725 162.752975 273.468018 503.637024 274.372986 224.896210 427.567993 195.478455 538.365845 112.178352 74.768463 260.596924 346.230316 395.402191 309.962585 360.378754 360.242767 194.652618 262.678711 311.649414 411.259460 278.653656 388.678040 328.816284 195.806931 368.652435 393.498596 149.985825 330.916138 341.434265 270.996674 inf 339.033386 192.917923 255.061157 339.087402 369.975433 197.664108 326.272339 376.252319 364.023102 394.314209 233.957703 280.560547 290.217682 124.561020 400.547089 304.016937 299.509216 383.173157 395.729187 302.682861 373.232178 258.507233 314.016296 475.070465 332.573303 249.590912 257.452271 217.708221 387.306152 296.317627 373.940979 346.373383 463.501190 323.150787 470.869781 432.343201 375.633240 363.166718 330.813538 248.501434 797782313179753664594676023296.000000 359.488586 365.299774 455.500916 269.796204 103.483795 495.314178 427.315979 267.253510 328.661133 147.931213 417.260712 590.022217 179.633209 370.218842 197.395462 284.120209 6205557777299847249920.000000 359.357544 397.551483 75.519508 371.464081 309.261292 327.855835 250.819473 425.539825 71.369308 355.461090 328.905884 323.798187 160.600113 461.727997 302.118896 353.364685 42131210542848009043968000.000000 
/backbone/stage4/stage4.1/branch2/branch2.3/Conv_param_0 96.675720 78.084663 127.392326 204.358551 719.884155 118.405075 127.447380 176.452194 278.717041 178.743454 237.708801 765.636230 73.278358 98.678604 261.223450 166.592850 195.305450 125.574440 183.491760 241.241669 781.488098 459.692047 119.729042 109.504883 5436096951815321419776000.000000 152.489090 607.911194 2758641689163363185065984.000000 138.079041 207.125092 147.100220 319.041748 174.306595 123.527321 272.822632 197.186646 146.454742 219.321350 9930311077562377306112.000000 92.196747 103.572250 190.367981 2073132905505270268071772160.000000 220.135269 136.276413 151.300735 144.386642 268.924347 151.943588 269.497986 166.451660 2010188106802690265186304.000000 234.086533 369.549103 269.265778 93.294395 562.960876 208.505478 221.499985 146.087906 80.015717 161.538925 401.636261 185.585388 192.614151 273.436920 576.495178 239.176849 214.610840 1157472518131094428581888.000000 172.082443 88.147499 88.097992 271.963226 219.686478 267.392944 228.205429 86.301796 212.817093 277.436340 154.490509 113.177132 208.393097 431.862854 343.262268 125.629288 540.507385 142.824783 73.048264 165.545685 152.584030 203.597809 277.484680 168.933533 201.866165 102.829231 165.520020 174.542114 157.123047 216.281540 626.235229 180.632339 291.068451 134.174271 101.098595 270.067963 34480695906054428426240.000000 135.147263 162.361160 170.793625 181.343369 267.400726 479.434937 162.686279 287.901337 95.837723 119.754738 128.154434 191.198486 116.346367 357212222750378164224.000000 164.726715 97.477722 117.491074 255.057312 98.199600 346.867584 200.729172 164.266403 155.251724 187.108521 141.462036 367.460785 125.365791 440.706635 782.186829 225.835861 118.963127 130.232788 353.578278 161.410400 164.595856 347.264984 208.188034 144.351776 135.599701 387.161774 147.981857 300.903748 236.521912 137.086761 175.173584 343.291382 132.981308 176.675659 216.214706 3773995758207822816891371520.000000 172.003647 336.447418 114.156845 212.966461 231.175522 225.557907 218.083267 185.718231 197.202423 165.244537 459.822144 217.159225 170.513367 667.177490 106.988625 291.407135 82.336166 178.351868 151.713821 249.817932 138.901108 154.308243 174.150177 168.253983 175.991333 215.176208 189.963318 145.357895 201.213531 178.208145 214.599899 169.375793 183.652176 277.458649 63.824291 104.824303 187.119629 99.520798 212.430298 223.562759 3337495041819222032252928.000000 213.551025 215.843994 71.995026 331.878387 582.772034 111.553558 149.427078 309.018951 89.018158 402.046448 101.898476 136.111755 281.712006 143.900803 356.585541 113.103920 827599411555367649280.000000 191.169159 135.309769 490.989166 100.823730 236.670105 231.712601 115.633331 92.668869 420.065948 209.169388 181.059570 177.428284 427.332062 168.097443 168.684601 141.055710 17393730423236291723264.000000 
/backbone/stage4/stage4.1/branch2/branch2.5/Conv_param_0 798.101624 952.366455 686.122864 964.320068 756.172241 1314.170898 969.225769 1086.949707 783.411072 1032.686890 762.790527 887.460144 745.611328 719.592896 1080.248535 844.237671 891.968323 511.511383 993.360535 686.386353 795.054443 940.451721 505.005280 783.982117 742.172546 673.875061 785.695496 1056.885132 823.241089 984.772278 1243.707397 923.346252 839.215393 391.119843 444.930328 939.566833 853.868530 1186.055786 1010.396484 517.741333 878.257202 1030.781006 848.246216 997.479736 712.199097 1032.373535 854.427124 930.775940 826.494080 1079.733032 938.485901 1217.207764 491.276886 1010.299805 1027.407837 1079.287598 690.050659 928.116455 846.710510 581.636597 812.757263 954.918335 664.191345 476.664581 624.418213 709.769775 528.008301 705.290771 637.268372 869.160278 929.146606 887.045349 710.825684 447.308929 912.890198 615.492737 565.583557 387.555908 945.624817 697.535828 789.451477 551.827576 743.131775 754.397034 656.391846 526.460693 893.474243 1230.865601 567.405579 700.401611 638.639587 575.328064 797.966675 682.426514 1028.799561 520.696411 843.648987 989.209106 980.637878 648.692627 720.664429 602.794861 578.845154 493.561249 674.491821 608.633606 699.217773 706.358521 578.416382 854.073669 566.205566 461.840851 273.569489 458.619385 727.471252 432.262543 503.138428 877.769043 613.803589 622.244812 401.149292 579.118164 767.092224 413.717041 615.412720 351.130646 472.366089 527.748535 350.785156 600.429321 329.263428 634.910950 427.614532 422.261414 884.603516 576.765686 720.221008 649.292358 479.934448 534.418274 417.306244 613.255249 635.696106 435.018860 801.940674 339.544464 794.891357 509.538666 656.579956 676.948303 524.431519 532.626282 480.860535 660.037109 680.604919 637.691589 555.603577 641.614807 674.553772 567.377930 743.970520 546.488892 725.408813 613.714661 597.682861 527.594910 584.328247 463.393097 446.828735 492.527557 226.861588 495.677216 538.084717 508.423157 580.325562 523.110046 640.797546 741.899902 432.648132 590.648682 725.609375 536.109741 416.946259 439.856506 611.070312 627.473389 586.654358 453.317535 756.532227 449.160675 511.395935 468.769135 341.126221 471.783508 611.416199 778.006042 627.546936 255.635468 568.391174 528.034912 667.999878 687.430481 432.503052 721.430115 571.118591 686.622925 379.088074 777.091248 420.821259 648.492798 502.512238 647.379395 431.119415 544.118103 451.542053 375.459656 360.924713 414.314301 787.654419 589.593140 430.323730 498.541168 354.661102 448.380981 646.503601 525.141357 619.670471 576.579407 366.863159 456.860443 467.499969 629.402161 
/backbone/stage4/stage4.2/branch2/branch2.0/Conv_param_0 311.061157 115.669876 108.614754 429.104218 inf 339.616608 222.461319 108.438171 272.030243 441.918213 367.229828 263.784210 200.075027 298.168884 91.243736 402.614075 163.697571 360.498077 338.931824 285.832947 345.781738 376.996399 345.448334 279.534485 232.812012 239.536240 154.122986 390.891479 355.242828 349.185333 222.941956 376.792816 329.597900 266.228577 84411717272355489232581910593536.000000 374.880157 364.322632 389.159058 362.641724 166.924438 419.187347 333.876404 208.555862 338.944641 333.236115 122.700188 276.534821 365.824158 403.257538 366.719482 310.790985 329.176300 291.755127 21015124423200808632320.000000 119.856804 221.404510 222.711792 312.236298 167387250919916758368256.000000 inf 399.067352 122.897087 183753475593283420239431729152.000000 inf 269.410706 314.259491 362.088837 325.793884 360.877136 219.905136 431.545502 292.012421 249.954239 322.232422 264.304352 377.574097 383.492218 386.362518 69.608879 467.970093 293.525238 464.629425 272.887421 281.337189 141.840927 156.767090 113.050690 305.192535 355.149689 293.642548 151.219254 480.052368 153.420303 349.138245 242.263626 412.400757 376854403402759016214853320704.000000 105.579742 465.487854 406.248871 126.026443 260.520752 1174219967740399434619420672.000000 96.224327 289.568817 330.661682 134.409698 99.335312 425.347595 242.390762 289.791412 345.355621 426.741699 380.002716 308.936584 381.977692 373.384003 338.673065 333726201461598298150180749312.000000 5698453794089406616668353855488.000000 339.077850 400.385010 292.658478 430.442780 330.349701 291.387207 164.262527 216.560303 212.746338 427.169983 119.591896 216.293793 407.658081 99497909473906056495104.000000 143.411621 396.817017 299.920258 236.071198 413.523956 273728308623148277967202811904.000000 421.906891 407.095062 303.934998 326.107544 224.930130 58.319668 251671910391461724160629145600.000000 154.001175 221.431564 358.718933 257.539703 237.111069 330.002380 483.175079 324.016693 133.910217 226.279800 176.170609 302.334076 407.226074 345.602875 370.671295 426.337952 126.145500 323.091400 449.713226 381.389984 293.505493 226.460938 376.420044 293.191528 303.521851 215.306534 415.854370 510.432220 327.681213 418.354462 232.761780 313.787964 273.944153 252.353348 78.349258 367.121124 451.782990 175.298630 375.763855 260.868073 332.076324 112.295143 346.628937 402.155151 208.757874 371.544342 182.675430 241.573624 inf 377.818756 226.408691 255.792358 258.770782 369.758789 391.087952 inf 469.851898 302.443939 381.633759 267.096283 277.245514 231.427338 282.845581 95.524956 41138749222157945320111079424.000000 415.744568 187378382995000091384045633536.000000 363.908936 390.179382 37618180377857799225344.000000 380.081696 260.899902 1202979189065808539710119739392.000000 341.007019 168.080215 164.269608 382.810791 186.223557 350.633759 381.046234 383.959778 374.832947 380.983612 289.291962 367.093079 
/backbone/stage4/stage4.2/branch2/branch2.3/Conv_param_0 66.567001 329.288696 547.359253 73.045372 52808113480113399693351845888.000000 125.307144 279.303436 298.822296 84.503777 205.903732 90.219208 135.755249 195.100677 71.601257 307.021240 211.639267 209.413361 143.371292 148.576492 86.661720 102.004982 144.526962 133.626694 110.319389 153.938812 335.061951 167.017960 67.187004 132.002548 180.754013 112.540466 161.236969 111.642799 170.273163 2450526135646091193675153408.000000 123.328308 155.852402 43.439014 168.990250 255.290298 95.637741 45.643810 274.815125 140.854935 112.737602 405.919098 185.334015 62.419407 117.232910 138.532516 92.075356 172.806046 104.575851 907248244977693622272.000000 540.183899 128.220520 344.496887 214.134979 4950747397673323593728.000000 49989484042215960293943541760.000000 129.366409 436.429688 2146086423315213138788352.000000 50927261023117180179769720832.000000 319.374481 188.586349 126.488564 233.711197 259.795288 295.549194 106.345505 115.937660 194.370209 87.521919 197.767334 148.824188 100.866379 61.958614 583.832214 85.361626 155.844193 118.077660 85.569939 186.417343 232.264572 395.330139 346.378845 282.165375 108.089325 149.967133 374.461914 92.785004 415.585052 109.057457 104.025925 189.411560 4692342101046673704747008.000000 471.632568 41.372200 190.153275 423.611725 144.734344 169420878353253670060032.000000 397.348053 236.481949 128.821930 849.931824 553.813049 143.400696 81.297821 193.654526 67.032768 47.653244 160.572586 205.123032 95.997887 150.884720 190.381851 12679842236881149110517760.000000 133188950976696783208448000.000000 136.936157 106.528984 171.712036 135.545929 45.876366 261.995514 193.116562 206.387329 267.960236 127.449745 376.856232 116.192825 147.931717 2447525127590862913536.000000 180.456573 168.031219 114.039986 69.510338 243.701096 2578621643130288581115904.000000 112.720810 106.549866 37.810173 165.130371 118.598877 850.776184 3645088446410429619503104.000000 589.275452 140.553040 90.149559 76.389931 113.285217 259.837494 128.237122 172.133896 303.370911 207.237442 421.999573 211.670990 119.203720 178.371552 130.946838 66.412399 430.213776 137.062149 87.664345 83.077232 117.398682 327.925934 164.616440 183.111115 77.538208 398.895752 58.287746 71.565857 175.578552 179.602951 245.844635 69.851517 230.431046 140.114380 748.862427 171.748108 112.372597 452.630920 159.904404 131.318161 90.545769 347.019196 246.510544 159.974731 218.295853 119.469994 288.130463 155.534653 4873501394935310518467952640.000000 91.954742 272.604156 127.809357 113.612206 162.798065 60.068352 13641238115299697453170688.000000 164.239761 151.128845 34.305992 238.106812 175.925095 237.810791 94.159988 776.899353 613459516595732003946496.000000 221.366226 4125937706567183439495168.000000 58.390743 69.282402 1505052048496435134464.000000 124.934708 251.546875 3688444347821546251747328.000000 145.253143 312.616150 244.230072 102.549873 199.077332 153.232742 168.952423 174.453354 110.516647 204.844620 217.554153 214.885681 
/backbone/stage4/stage4.2/branch2/branch2.5/Conv_param_0 528.900574 761.239807 872.128113 918.405457 772.627869 724.832397 1017.514954 1052.344971 725.506348 585.619202 752.729980 666.795410 489.402313 1006.211853 636.176941 651.375305 781.916809 1055.755493 655.198303 819.725769 456.167114 839.514221 670.356445 733.834106 1181.628906 640.396118 600.604980 910.942810 471.708374 604.603088 701.319397 1018.397095 906.024780 683.466858 746.919312 613.642334 815.049500 841.953979 1151.993774 563.088684 894.528381 1080.314209 753.174988 794.676270 1005.910095 635.691833 723.292175 613.028687 961.829224 703.529907 885.341309 684.967651 579.581299 444.763763 820.088196 900.933716 597.713867 556.697083 637.807312 768.159851 667.256775 572.456787 495.916962 393.894653 841.915161 610.850281 381.028198 1015.140564 665.875977 724.872070 544.758728 598.531555 845.755737 996.662354 971.808167 739.404114 735.384644 767.537537 379.495331 1065.297729 599.521606 809.979065 930.662476 763.284485 442.108887 988.105957 296.793884 527.597900 768.067993 784.720520 848.399292 869.184570 932.421265 780.326050 708.838928 493.428101 401.705872 934.951965 274.285919 537.593384 483.483978 961.913818 500.074219 824.071777 893.047791 745.354309 859.547485 727.280945 839.971680 851.938721 816.180237 643.262878 627.322815 703.749023 932.751404 909.335571 539.530334 446.734436 439.428650 475.976654 498.750641 428.308258 581.287781 169.698944 925.412231 753.906982 462.828186 478.583618 590.032166 603.784668 459.289978 579.369019 357.590210 450.796997 559.940369 441.027924 494.867371 634.066284 574.628662 675.845154 762.907349 633.710693 353.510559 612.309387 505.842712 454.877594 669.946899 749.735352 408.785278 516.218140 372.575195 712.199768 592.527893 349.925049 356.112671 247.099274 494.962616 463.722931 307.090576 513.043518 353.699677 335.432220 520.403015 701.127197 508.050690 457.258057 523.428650 513.477356 516.196411 563.225159 608.179749 708.604065 597.493347 417.585571 420.520081 683.711670 513.473755 533.634033 668.245361 700.922302 748.231873 341.285126 483.149384 627.092896 452.501099 512.518372 525.812378 588.967468 539.092529 555.243225 619.562378 453.684753 720.688782 496.200348 577.293091 572.609924 539.593628 483.237427 478.958862 561.398804 362.854889 610.215210 524.102356 364.401978 481.097107 750.422302 546.252441 610.964111 603.587830 392.185760 420.240112 281.212982 441.654541 434.778473 409.803558 564.957886 493.670593 489.158569 338.629913 689.786621 615.669189 555.877197 522.964966 406.074829 595.178528 399.546143 462.819061 407.958313 441.311920 588.006714 393.788757 368.972229 
/backbone/stage4/stage4.3/branch2/branch2.0/Conv_param_0 208116372062533166161278795776.000000 331.633270 723987667761747277826848980992.000000 400.291016 233.194290 345.703033 299.421478 461.306885 309.272125 133.753403 408.861847 314.960175 215.800323 327.394867 275.053833 316.345215 363.384186 108.807037 277.236053 74.240486 21906382285857802420224.000000 305.248077 59.805222 326.613647 368.055298 438.805084 164.666473 318.833405 411.838623 361.317169 259.714539 364.911743 341.793335 397.776520 355.794037 323.043884 475.326355 269.195618 302.931610 439.219116 356.390411 276.166656 307.240845 291.343689 322.602814 347.224976 353.287537 339.665833 287.016388 251.944672 301.782410 300.844238 354.088196 179.617920 88675048879119816579153395712.000000 376.159332 257.505096 342.302734 482.177002 361.871826 145.311249 79.086678 275.318634 302.231659 165.525528 386.635040 433.899323 215.328934 394.971588 336.897583 372.537872 310.349579 267.458771 255.798767 300.968384 307.993103 231.276627 25680921191151053045760.000000 286.971680 519.840759 329.322388 392.656738 357.363464 395.562622 290.665131 294.607361 275.648193 403.835388 415.874908 459.064087 140.000229 304.334015 338.802734 275.340302 359.762146 263.987732 271.104950 418.999573 184698288900244115896626315264.000000 235.795486 338.301300 408.716156 400.292023 274.969910 inf 208.339096 353.711731 460.184692 295.885986 359.513123 244.061050 inf 258.835876 357.321350 174.757904 179.889313 260.987854 275.074707 314.980499 441.054840 439.547180 315.739624 454.536407 259.662720 186.099319 262.142914 271.906067 322.430939 343.666138 3060812903918404770988032.000000 319.235809 393.174683 354.908234 150.133926 301.696289 457.655487 284.988983 313.469238 427.605530 312.337341 331.449371 232.841385 464.348114 370.028381 114.737007 361.082611 378.177765 378.844482 229.210846 403.276062 227.456024 364.087219 236.059937 269.264099 255.602631 381.424255 327.399963 243.924011 230.155731 270.288879 369.789001 381.846313 348.173248 308.856995 328.855133 95.655426 251.978256 406.479095 299.959473 248.383438 243.616547 294.144928 inf 323.588043 229.528259 285.756500 301.730743 404.492645 329.999786 371.186432 178.138626 162.668823 320.252258 93.393188 337.986938 426.025360 451.253418 237.592972 355.390961 120881692184353420068754817024.000000 299.795197 314.573975 185.706314 inf 449.386749 317.339447 269.947968 164.542892 382.160278 281.887634 526344564216993083331444736.000000 246.466888 245.042007 376.462799 168.381439 240.871262 257.738403 253.523117 249.222168 343.846588 426.566833 29633003252754317049856.000000 5251378750650973914398720.000000 360.172211 405.315948 507.530853 321.288727 310.331299 160916888406560153221988352.000000 401.509308 270.887482 293.966583 314.074158 294195592016547570253824000.000000 433.341553 354.754059 354.556671 353.052124 399.363739 341.209259 255.224686 396.573547 
/backbone/stage4/stage4.3/branch2/branch2.3/Conv_param_0 8871420842064948238483456.000000 34.458515 5547393652801791089180672.000000 63.295490 152.070602 72.284950 111.647842 119.383293 89.311714 312.827148 49.707043 161.793991 241.845215 49.811264 155.957062 112.106888 134.321823 433.938812 224.370316 575.597046 1305703588690600656896.000000 40.946899 504.854706 39.643547 41.277287 138.149826 263.274750 87.603920 163.105576 149.215271 94.829445 161.777695 186.486115 97.545738 196.337631 96.274406 116.255157 66.883324 215.686005 103.786201 52.501823 28.920345 98.189835 387.082886 47.880741 252.458038 110.956749 166.143890 57.008034 193.001923 157.142609 234.071777 44.716988 196.256577 4814877769090427070185472.000000 173.601837 296.364166 203.420105 89.444160 46.548283 285.908600 322.713715 292.974701 68.657227 394.321594 64.518250 42.088017 74.902344 68.712891 213.920792 106.167313 181.713959 161.695618 155.364883 90.785042 66.971001 247.990829 930577031784961146880.000000 139.790024 66.562416 110.525993 144.064026 197.532257 46.754860 124.836105 137.211349 99.010101 130.109970 74.558113 87.456207 375.739532 195.749908 52.768482 243.148865 84.957420 32.974201 107.821609 84.935722 22334858861688691571556352.000000 314.654724 64.056297 75.139450 152.200745 207.272079 400558983094830802115330310144.000000 128.797470 44.863411 60.888271 186.294144 82.906036 348.513977 393699893647563137298202624.000000 183.886719 222.729721 266.660583 62.739876 276.527069 146.418365 247.395187 55.618977 49.145130 145.417221 98.499184 222.845490 122.365120 77.657448 187.864700 222.436493 82.169968 9341277400999242235904.000000 65.106842 106.581161 160.788940 278.853241 166.086136 74.841080 71.491417 132.320816 82.049545 121.201462 131.143280 284.521637 82.452599 63.629017 186.971115 106.229851 51.735977 178.971283 184.172028 189.351990 38.794739 98.988579 374.649353 251.066971 164.548386 63.981026 87.060928 91.875877 222.405289 117.384087 71.236420 126.834450 210.746277 200.252121 114.207497 475.511414 107.203346 95.313507 107.948685 127.443016 232.605270 133.913193 326234337041718989325879738368.000000 53.920792 138.370026 142.644699 57.919865 54.171959 90.883591 204.136505 293.198425 323.766083 144.158112 536.366638 70.749664 46.431320 90.893204 162.261154 156.276367 4417698040135625197223936.000000 95.642975 51.053810 74.615067 28399070045593051598476541952.000000 38.010960 34.900547 168.126434 178.170868 45.193253 44.442169 66562644046182136938496.000000 202.000427 284.920166 110.158714 233.425125 127.837822 171.434341 116.781433 61.046143 83.827713 106.355453 1129650068326084247552.000000 7615159690868861960192.000000 74.117348 166.845963 88.577408 52.128044 165.860062 82223623519986885066752.000000 127.288002 192.896698 97.505692 227.271500 80964831395339812470784.000000 65.191330 62.398560 36.779915 163.746964 80.791336 232.476852 59.735573 132.005508 
/backbone/stage4/stage4.3/branch2/branch2.5/Conv_param_0 522.346130 415.924591 777.981384 401.342804 448.291260 588.161499 530.087830 476.218933 489.701965 611.407837 324.627228 687.199524 523.429016 643.341064 722.608459 595.153748 623.683777 545.184448 493.135284 658.357910 668.049133 328.725708 385.933838 518.206482 556.045532 588.517700 473.985046 727.850159 437.442749 475.387207 677.629822 559.289917 445.576752 550.969788 482.873352 446.948212 537.531128 551.022461 426.221497 791.764282 562.764282 583.035828 533.124207 655.057312 528.347168 541.990112 593.477539 360.704926 521.446167 655.252075 555.301636 287.262695 570.892883 530.464905 687.487366 444.928375 654.301086 687.983704 502.472778 589.394348 906.660950 590.815125 631.207703 332.906586 415.624359 455.249542 420.048859 379.308807 630.877869 577.915771 695.127869 731.572998 626.752014 615.612915 532.204102 813.963135 424.584534 447.785950 434.284851 868.815186 481.306519 526.181763 392.783844 555.313110 517.685547 401.308716 613.449341 574.724304 770.427429 665.954285 500.727020 571.531311 438.872437 589.631165 497.141846 652.106873 296.135895 569.917847 506.677032 526.360291 387.641937 547.841980 556.377319 485.863464 536.958496 462.801971 395.557007 487.660919 602.905823 490.681335 609.310669 690.319702 540.495789 566.775818 789.400391 423.611053 530.912537 568.807556 676.312012 358.951630 550.187256 622.678772 467.045258 519.004150 564.006104 514.239929 618.991211 435.158508 653.829224 526.617371 426.928619 476.208740 495.552948 778.345276 594.098145 603.911865 657.997192 521.039368 535.867249 620.115906 629.778320 368.954529 498.545502 635.993713 480.115417 520.033569 423.199951 482.750641 512.080505 578.597839 570.109863 538.822205 455.028015 487.585327 563.207947 671.442627 581.821045 476.782501 416.497406 500.461884 352.446533 680.107178 617.452332 522.232605 596.032227 663.808838 763.581482 381.610870 435.611176 452.720367 590.679810 500.735046 366.636017 781.338806 461.924835 509.002289 586.063782 598.988586 376.806702 575.746826 562.301514 402.241150 531.770935 631.581177 621.938416 576.506165 668.710999 453.745422 541.250610 496.090881 398.183594 214.814133 626.374573 496.510406 587.113586 442.576050 380.957977 431.243378 299.749329 385.282745 582.825684 604.718201 432.112549 556.974426 446.099884 728.492920 522.748108 590.346130 659.313721 668.860413 675.070923 605.035461 366.535339 509.111023 866.536743 580.812683 629.300903 582.487183 292.502594 537.287231 442.313232 779.097595 621.869019 639.050781 512.722839 541.834229 484.449921 441.844543 671.465637 461.918335 518.586548 540.983337 
/fpn/reduce_layers.0/conv/Conv_param_0 299.731415 354.582581 293.636383 203.125946 435.336823 522.352234 274.163544 154.733505 347.921082 202.335007 345.090881 179.298904 248.170898 513.413818 529.185852 443.940399 411.852081 404.672028 345.413147 355.337616 213.090027 339.335052 410.508026 352.046295 459.143372 233.342560 524.825256 154.969955 427.664246 226.846603 302.717560 288.236389 322.241821 511.311615 323.703125 256.745483 396.698608 144.702362 347.314301 334.887970 419.602234 398.962982 399.650604 274.233002 231.466492 259.294769 417.556091 333.834473 264.755127 235.425888 495.569244 440.542084 407.499969 331.870941 436.663025 553.723389 695.897949 309.600494 385.856537 489.415588 285.319092 232.293594 157.476089 314.455048 411.613037 368.686798 302.392609 301.873291 370.137421 305.952454 477.773865 350.280609 305.765106 473.142914 418.140839 141.738800 381.150299 378.478668 294.158966 405.321533 302.649445 657.290833 365.938232 227.617233 409.056946 147.401550 203.944473 402.981812 420.579132 327.172119 476.141571 181.517319 389.171509 715.097595 322.053070 359.923431 
/fpn/reduce_layers.1/conv/Conv_param_0 532.748474 515.617310 308.165436 337.464935 288.357452 508.642578 591.228333 436.022034 425.426239 513.105957 163.756668 572.601562 631.476501 515.774902 634.033569 689.103516 522.322266 561.436829 457.749878 307.720367 551.871643 312.162109 738.578491 532.904297 511.218658 515.102112 448.616821 428.402954 239.021439 432.642792 576.705750 582.772034 436.155731 340.044922 655.110413 417.240540 472.992401 356.278809 415.626160 426.829834 276.199493 329.796692 396.268127 679.547791 566.624146 533.489685 453.793610 322.026642 435.860107 588.556580 376.277039 418.707977 607.127075 531.477905 554.577087 401.615540 401.160736 589.710693 462.842529 562.612488 458.251312 424.906921 431.925537 325.602020 280.819641 615.040466 330.060089 532.901184 380.901611 409.159576 630.236328 734.601501 414.433746 392.393677 372.206268 559.205261 599.579285 546.661194 178.772476 559.013489 404.581543 571.717468 410.534698 491.991730 532.802246 438.125061 422.258606 285.799225 677.741150 503.252502 514.684509 460.707916 118.107903 570.247131 370.062531 245.842056 
/fpn/reduce_layers.2/conv/Conv_param_0 301.294128 343.933990 282.420959 351.444214 333.102692 283.364197 259.648102 306.195648 397.212280 256.088562 213.404770 338.113892 225.530289 425.451111 414.871399 271.279510 373.905365 236.946930 226.675629 302.339691 303.829590 278.968781 217.174393 265.186646 249.593811 332.355865 318.579590 255.271820 324.125336 346.184418 301.758331 331.567841 427.872833 268.705811 272.339966 355.126373 436.362274 306.843384 403.593140 294.693451 269.133636 370.654358 276.865051 470.964111 190.499039 264.059235 331.984589 269.244385 269.777649 216.520950 373.464539 268.286621 139.251221 431.452240 297.811829 337.840118 269.603394 343.719910 228.834991 258.857330 316.701324 245.921356 314.100586 333.780365 284.961151 367.332977 196.131927 274.772400 280.482147 271.364258 415.785553 353.853271 251.087677 298.314453 313.034912 242.107819 430.471649 314.496429 237.152267 340.551758 333.653870 355.077209 280.193878 232.693497 257.583221 394.363708 310.422791 267.927917 183.735367 251.529053 370.149628 322.862457 327.216095 355.811951 303.468781 351.161285 
/fpn/top_down_blocks.0/blocks/blocks.0/ghost1/primary_conv/primary_conv.0/Conv_param_0 327.858826 437.646637 487.037262 192.604980 239.035278 337.871552 361.086212 313.610657 256.087494 345.743317 571.645630 212.877441 300.265076 574.945496 333.175171 427.629181 175.096619 459.601135 201.041199 566.941711 250.167130 598.675720 360.842590 261.217316 465.296143 343.474365 336.688904 179.192642 315.110138 229.985123 347.767944 598.110046 296.356567 279.552521 365.788910 352.030762 276.116333 344.394623 427.447021 601.675842 325.580933 312.937042 388.100647 388.340179 296.553497 353.478394 344.267426 305.566406 
/fpn/top_down_blocks.0/blocks/blocks.0/ghost1/cheap_operation/cheap_operation.0/Conv_param_0 74.719536 112.999321 124.009300 337.387421 356.353302 111.096405 225.658173 130.637924 34.426388 213.776627 72.215111 242.692993 97.316742 83.752563 82.922127 61.325104 172.194473 214.758011 205.520355 105.191368 237.019211 94.319496 257.615845 53.257866 53.768356 97.592804 104.432350 142.602753 280.584869 256.962372 99.890404 83.238579 108.937439 44.142078 93.241768 319.184357 138.334747 345.013397 270.602570 85.036087 100.162231 102.255821 83.816368 171.118591 156.331421 115.594086 85.552155 312.710358 
/fpn/top_down_blocks.0/blocks/blocks.0/ghost2/primary_conv/primary_conv.0/Conv_param_0 303.204987 496.558838 190.993149 1223.470093 126.700668 328.280762 301.540955 300.665436 230.002701 464.278564 1248.410034 438.182770 688.893433 669.426208 403.599182 462.186829 404.569977 1262.518677 279.275665 799.213501 429.633942 200.089554 583.398193 998.390686 332.023773 565.780090 675.627380 196.854156 605.534058 134.784515 500.747620 571.470276 306.136414 704.578003 437.767426 745.268799 439.735840 1114.284302 854.740356 327.638092 380.170807 203.138641 538.297974 1120.761841 415.279297 631.358765 753.826721 285.733643 
/fpn/top_down_blocks.0/blocks/blocks.0/ghost2/cheap_operation/cheap_operation.0/Conv_param_0 101661.257812 63.970818 7583.637695 34.625141 124389.250000 93.777336 9802.593750 80.004448 16846.513672 2257.558105 48.055077 21491.787109 32.358948 40.919506 69967.015625 28.392466 36.532467 53.725418 871.653870 44.036694 38.274704 513.294312 49.411503 27.318317 11430.715820 48.403374 54.259449 114.483582 51.771698 5657.608398 56.371887 32.054153 43.379166 18.473602 82.061752 61.649738 76.764122 44.820602 53.897671 22061.091797 401.713104 28587.162109 43.707764 51.525909 94.794884 91.939545 305366.156250 94.158699 
/fpn/top_down_blocks.0/blocks/blocks.0/shortcut/shortcut.0/Conv_param_0 266.610718 148.706818 455.361664 101.551613 139.708817 547.229126 52.333527 131.111969 121.122299 214.295059 145.478912 44.591225 597.373657 83.160591 94.843269 216.278091 46.209999 214.033188 270.209900 183.951996 249.554550 203.473602 362.034393 135.583115 280.781372 162.549576 91.128632 178.602112 155.217941 254.220169 101.096542 168.993011 105.368889 138.892014 210.902603 124.944054 111.381218 254.158249 133.993942 81.702835 155.417358 72.227623 80.020576 42.340080 191.539810 244.502518 206.487991 67.353813 162.362427 221.016769 79.409790 454.023224 210.123077 58.509510 113.443993 69.080246 93.070984 138.727173 120.925110 185.401352 102.147507 140.001587 396.381744 187.258469 432.693115 169.124817 188.844513 237.862030 144.306351 348.983704 124.362183 114.977226 191.054794 317.452972 157.241959 191.289307 82.359772 180.395081 192.800201 223.999130 105.274940 312.386963 184.735260 278.546295 177.050812 105.763176 122.257401 157.250412 219.895477 174.665115 262.001617 154.650970 133.187439 130.464890 94.450546 111.622696 67.000755 126.674065 84.198158 93.251091 54.586418 106.800217 264.713776 44.653111 75.280014 83.872711 51.607533 68.632759 57.624935 37.082588 65.641304 65.475746 130.110245 114.594513 58.593395 90.887932 224.494095 73.750488 57.964180 135.403259 208.919647 130.057159 187.266235 109.151405 52.611698 75.360817 278.168579 64.140854 51.242046 107.829826 106.640045 67.089371 70.761864 164.011002 115.915985 161.318115 70.346283 105.221359 87.721611 62.140099 61.136642 65.983223 671.967041 98.900558 40.341412 266.815125 78.538460 83.438606 65.299622 233.476791 140.772369 240.447296 184.376572 51.267967 65.583649 79.685692 61.574432 180.515839 112.856934 468.125946 195.137985 67.197075 59.349525 56.335758 140.798950 103.283623 61.410198 40.497993 61.160545 106.811325 110.953629 61.104839 214.882812 101.679298 106.786514 175.793976 180.674286 131.484756 49.394226 100.803520 50.930962 155.013275 69.895561 52.659420 39.591232 65.003334 97.607559 42.108799 47.433853 154.504456 64.647545 66.994926 
/fpn/top_down_blocks.0/blocks/blocks.0/shortcut/shortcut.2/Conv_param_0 891.632385 883.914856 557.897400 634.328247 628.463562 1070.359741 1076.179321 1015.932556 630.691772 1285.127319 596.365356 1403.903198 750.421143 630.333435 611.242188 663.970703 848.387512 692.127686 817.577393 494.434570 718.963745 596.259521 664.065796 675.744202 880.255981 781.909851 582.798828 954.891785 430.460785 662.087952 668.609863 705.451416 834.446106 705.272522 870.847290 826.646912 970.450012 409.614044 785.655884 823.106995 989.965515 1083.883545 950.398376 716.375122 1000.091980 532.694519 930.880737 648.556519 982.288025 718.746521 677.522278 1059.256592 1065.545654 968.410706 893.922180 769.574463 564.722717 618.452698 1046.937622 1132.329956 868.537537 1015.462524 462.532867 542.968018 877.042603 535.500793 959.195984 790.225281 741.507874 1064.482544 1034.670166 720.093872 1236.176758 369.981201 1297.744995 764.469849 205.848389 416.644531 647.879395 2861.868164 1100.166504 795.827759 837.786194 784.522888 865.114380 872.480164 740.447510 370.139893 651.268066 385.820282 916.695374 773.605530 793.617859 722.962891 1074.544067 931.700134 
/fpn/top_down_blocks.1/blocks/blocks.0/ghost1/primary_conv/primary_conv.0/Conv_param_0 333.779633 326.878876 329.445953 436.227692 528.250061 324.055542 161.052017 571.318848 356.995270 316.828491 251.684128 274.220032 455.109131 339.420135 394.813385 535.221130 596.362000 372.758331 309.590179 373.036316 437.904724 541.522888 223.807358 642.218750 352.643066 349.391785 511.634399 366.565338 282.438354 303.705627 348.934967 331.945831 336.270172 451.057281 371.815613 207.789017 562.407410 249.747391 380.532867 848.355286 243.066452 593.489380 352.684326 399.359009 343.454895 365.128143 440.022644 297.188843 
/fpn/top_down_blocks.1/blocks/blocks.0/ghost1/cheap_operation/cheap_operation.0/Conv_param_0 83.611206 87.909416 157.113129 51.401180 85.702583 208.424423 46.584801 80.880630 40.944183 94.861664 166.297775 119.627823 50.121532 162.836349 99.273544 83.302917 70.496605 114.496513 373.683624 119.707413 200.933533 86.632004 341.029358 90.418404 94.736900 152.362183 137.331238 222.428040 133.302841 50.426792 39.742985 243.723785 161.094894 65.887772 106.114792 135.531509 119.263382 86.509003 189.025497 84.995720 186.619370 57.941395 109.769112 48.673943 115.374649 124.286652 113.591698 84.782562 
/fpn/top_down_blocks.1/blocks/blocks.0/ghost2/primary_conv/primary_conv.0/Conv_param_0 309.829956 117.121925 305.993805 475.936432 171.831924 242.688248 280.791748 350.173187 231.712524 170.643738 209.089264 397.913788 423.924713 216.375107 167.546402 231.514694 191.790726 196.664459 226.074112 202.814713 814.602417 127.788597 206.754654 254.245148 213.901932 228.254456 177.694641 129.251541 171.144119 171.178421 208.304352 209.953842 241.442017 480.879364 218.458267 366.221252 180.735443 209.450394 164.247543 288.420532 534.076050 339.046265 229.830597 140.365128 323.702881 273.628082 334.838165 395.880676 
/fpn/top_down_blocks.1/blocks/blocks.0/ghost2/cheap_operation/cheap_operation.0/Conv_param_0 72.844772 240.739807 151.779526 71.172409 127.310387 142.120682 102.912811 73.127609 108.040413 367.789734 123.348198 74.802162 63.281429 177.868042 318.084808 189.770432 108.601021 208.056015 84.199600 199.163681 39.129787 2053.297607 164.219009 172.474777 97.880325 121.475098 133.540833 273.360992 206.876907 256.839264 212.312988 102.266525 70.851288 112.067734 202.426819 64.272614 112.122589 543.176880 170.978333 141.773804 54.878201 104.206970 128.873001 131.699493 105.520409 122.242477 139.608795 125.183365 
/fpn/top_down_blocks.1/blocks/blocks.0/shortcut/shortcut.0/Conv_param_0 186.335052 139.918442 301.745667 212.671051 426.991028 144.400620 209.330765 252.112427 458.840027 101.934013 215.873276 128.815247 333.233978 316.583618 207.526169 202.462128 159.262650 125.928307 254.248291 115.686157 429.852692 578.781250 420.403748 141.095139 380.357513 347.328674 258.657654 536.066284 71.758926 710.096558 194.226898 175.073059 168.826904 231.511765 156.272415 127.777016 182.499268 113.946770 121.071022 183.043900 114.402374 147.722305 221.888397 105.327888 159.830521 306.398712 80.340614 189.695267 81.991028 577.220581 183.783905 394.029388 56.480576 207.140320 88.681282 301.296875 70.808220 218.517761 269.471039 127.839424 236.996857 139.423676 46.271175 428.882416 405.201141 885.717346 353.060699 438.129059 321.475922 117.201942 136.464493 505.771271 52.074940 781.612305 293.290680 338.622772 844.199341 72.362099 294.619385 656.123901 255.603012 336.308655 412.858368 436.205566 520.058777 462.056030 450.143860 55.656174 416.834198 54.814407 356.311951 142.803482 485.205719 193.174423 232.385178 293.430847 286.375549 135.389008 268.748108 239.330353 194.024948 242.824738 187.297745 59.057766 245.460983 77.642250 206.110123 107.394173 79.498558 305.219116 135.242722 254.209045 130.184662 247.787735 96.178619 100.069405 232.826202 89.018791 155.582733 125.783058 235.000076 170.730194 364.315979 120.270042 327.223663 129.627899 188.424408 219.330109 85.134163 100.037727 247.293427 217.294052 189.620239 182.495132 300.317596 494.827209 73.220009 101.765327 217.457169 80.363579 140.862595 130.361664 147.095047 144.451767 228.212540 100.950134 168.696106 143.330856 141.002243 302.361603 185.224152 167.002609 102.393417 146.948975 255.988602 145.192993 427.508026 207.781799 136.448349 253.700897 266.521484 158.834885 207.397858 146.012207 97.991211 112.460106 194.888092 65.795128 292.431549 139.008911 138.681290 120.432037 283.492706 257.250397 166.208984 219.645721 260.714081 387.051300 247.356247 256.464172 220.972809 86.076111 428.234741 130.929886 117.647346 299.211060 125.575859 139.861374 111.788513 101.965149 211.176132 402.847748 
